{
  "version": "1.0",
  "truncation": null,
  "padding": null,
  "added_tokens": [
    {
      "id": 0,
      "content": "<|endoftext|>",
      "single_word": false,
      "lstrip": false,
      "rstrip": false,
      "normalized": false,
      "special": true
    },
    {
      "id": 1,
      "content": "<|fim_prefix|>",
      "single_word": false,
      "lstrip": false,
      "rstrip": false,
      "normalized": false,
      "special": true
    },
    {
      "id": 2,
      "content": "<|fim_middle|>",
      "single_word": false,
      "lstrip": false,
      "rstrip": false,
      "normalized": false,
      "special": true
    },
    {
      "id": 3,
      "content": "<|fim_suffix|>",
      "single_word": false,
      "lstrip": false,
      "rstrip": false,
      "normalized": false,
      "special": true
    },
    {
      "id": 4,
      "content": "<|fim_pad|>",
      "single_word": false,
      "lstrip": false,
      "rstrip": false,
      "normalized": false,
      "special": true
    },
    {
      "id": 5,
      "content": "<|file_separator|>",
      "single_word": false,
      "lstrip": false,
      "rstrip": false,
      "normalized": false,
      "special": true
    },
    {
      "id": 6,
      "content": "<pad>",
      "single_word": false,
      "lstrip": false,
      "rstrip": false,
      "normalized": false,
      "special": true
    },
    {
      "id": 7,
      "content": "<unk>",
      "single_word": false,
      "lstrip": false,
      "rstrip": false,
      "normalized": false,
      "special": true
    },
    {
      "id": 8,
      "content": "<|repo_name|>",
      "single_word": false,
      "lstrip": false,
      "rstrip": false,
      "normalized": false,
      "special": true
    },
    {
      "id": 9,
      "content": "<|file_name|>",
      "single_word": false,
      "lstrip": false,
      "rstrip": false,
      "normalized": false,
      "special": true
    }
  ],
  "normalizer": {
    "type": "NFKC"
  },
  "pre_tokenizer": {
    "type": "Sequence",
    "pretokenizers": [
      {
        "type": "Digits",
        "individual_digits": true
      },
      {
        "type": "Split",
        "pattern": {
          "Regex": "'(?:[sdmt]|ll|ve|re)| ?\\p{L}+| ?\\p{N}+| ?[^\\s\\p{L}\\p{N}]+|\\s+(?!\\S)|\\s+"
        },
        "behavior": "Removed",
        "invert": true
      },
      {
        "type": "ByteLevel",
        "add_prefix_space": false,
        "trim_offsets": true,
        "use_regex": true
      }
    ]
  },
  "post_processor": {
    "type": "ByteLevel",
    "add_prefix_space": true,
    "trim_offsets": false,
    "use_regex": true
  },
  "decoder": null,
  "model": {
    "type": "BPE",
    "dropout": null,
    "unk_token": null,
    "continuing_subword_prefix": null,
    "end_of_word_suffix": null,
    "fuse_unk": false,
    "byte_fallback": false,
    "ignore_merges": false,
    "vocab": {
      "<|endoftext|>": 0,
      "<|fim_prefix|>": 1,
      "<|fim_middle|>": 2,
      "<|fim_suffix|>": 3,
      "<|fim_pad|>": 4,
      "<|file_separator|>": 5,
      "<pad>": 6,
      "<unk>": 7,
      "<|repo_name|>": 8,
      "<|file_name|>": 9,
      "!": 10,
      "\"": 11,
      "#": 12,
      "$": 13,
      "%": 14,
      "&": 15,
      "'": 16,
      "(": 17,
      ")": 18,
      "*": 19,
      "+": 20,
      ",": 21,
      "-": 22,
      ".": 23,
      "/": 24,
      "0": 25,
      "1": 26,
      "2": 27,
      "3": 28,
      "4": 29,
      "5": 30,
      "6": 31,
      "7": 32,
      "8": 33,
      "9": 34,
      ":": 35,
      ";": 36,
      "<": 37,
      "=": 38,
      ">": 39,
      "?": 40,
      "@": 41,
      "A": 42,
      "B": 43,
      "C": 44,
      "D": 45,
      "E": 46,
      "F": 47,
      "G": 48,
      "H": 49,
      "I": 50,
      "J": 51,
      "K": 52,
      "L": 53,
      "M": 54,
      "N": 55,
      "O": 56,
      "P": 57,
      "Q": 58,
      "R": 59,
      "S": 60,
      "T": 61,
      "U": 62,
      "V": 63,
      "W": 64,
      "X": 65,
      "Y": 66,
      "Z": 67,
      "[": 68,
      "\\": 69,
      "]": 70,
      "^": 71,
      "_": 72,
      "`": 73,
      "a": 74,
      "b": 75,
      "c": 76,
      "d": 77,
      "e": 78,
      "f": 79,
      "g": 80,
      "h": 81,
      "i": 82,
      "j": 83,
      "k": 84,
      "l": 85,
      "m": 86,
      "n": 87,
      "o": 88,
      "p": 89,
      "q": 90,
      "r": 91,
      "s": 92,
      "t": 93,
      "u": 94,
      "v": 95,
      "w": 96,
      "x": 97,
      "y": 98,
      "z": 99,
      "{": 100,
      "|": 101,
      "}": 102,
      "~": 103,
      "¡": 104,
      "¢": 105,
      "£": 106,
      "¤": 107,
      "¥": 108,
      "¦": 109,
      "§": 110,
      "¨": 111,
      "©": 112,
      "ª": 113,
      "«": 114,
      "¬": 115,
      "®": 116,
      "¯": 117,
      "°": 118,
      "±": 119,
      "²": 120,
      "³": 121,
      "´": 122,
      "µ": 123,
      "¶": 124,
      "·": 125,
      "¸": 126,
      "¹": 127,
      "º": 128,
      "»": 129,
      "¼": 130,
      "½": 131,
      "¾": 132,
      "¿": 133,
      "À": 134,
      "Á": 135,
      "Â": 136,
      "Ã": 137,
      "Ä": 138,
      "Å": 139,
      "Æ": 140,
      "Ç": 141,
      "È": 142,
      "É": 143,
      "Ê": 144,
      "Ë": 145,
      "Ì": 146,
      "Í": 147,
      "Î": 148,
      "Ï": 149,
      "Ð": 150,
      "Ñ": 151,
      "Ò": 152,
      "Ó": 153,
      "Ô": 154,
      "Õ": 155,
      "Ö": 156,
      "×": 157,
      "Ø": 158,
      "Ù": 159,
      "Ú": 160,
      "Û": 161,
      "Ü": 162,
      "Ý": 163,
      "Þ": 164,
      "ß": 165,
      "à": 166,
      "á": 167,
      "â": 168,
      "ã": 169,
      "ä": 170,
      "å": 171,
      "æ": 172,
      "ç": 173,
      "è": 174,
      "é": 175,
      "ê": 176,
      "ë": 177,
      "ì": 178,
      "í": 179,
      "î": 180,
      "ï": 181,
      "ð": 182,
      "ñ": 183,
      "ò": 184,
      "ó": 185,
      "ô": 186,
      "õ": 187,
      "ö": 188,
      "÷": 189,
      "ø": 190,
      "ù": 191,
      "ú": 192,
      "û": 193,
      "ü": 194,
      "ý": 195,
      "þ": 196,
      "ÿ": 197,
      "Ā": 198,
      "ā": 199,
      "Ă": 200,
      "ă": 201,
      "Ą": 202,
      "ą": 203,
      "Ć": 204,
      "ć": 205,
      "Ĉ": 206,
      "ĉ": 207,
      "Ċ": 208,
      "ċ": 209,
      "Č": 210,
      "č": 211,
      "Ď": 212,
      "ď": 213,
      "Đ": 214,
      "đ": 215,
      "Ē": 216,
      "ē": 217,
      "Ĕ": 218,
      "ĕ": 219,
      "Ė": 220,
      "ė": 221,
      "Ę": 222,
      "ę": 223,
      "Ě": 224,
      "ě": 225,
      "Ĝ": 226,
      "ĝ": 227,
      "Ğ": 228,
      "ğ": 229,
      "Ġ": 230,
      "ġ": 231,
      "Ģ": 232,
      "ģ": 233,
      "Ĥ": 234,
      "ĥ": 235,
      "Ħ": 236,
      "ħ": 237,
      "Ĩ": 238,
      "ĩ": 239,
      "Ī": 240,
      "ī": 241,
      "Ĭ": 242,
      "ĭ": 243,
      "Į": 244,
      "į": 245,
      "İ": 246,
      "ı": 247,
      "Ĳ": 248,
      "ĳ": 249,
      "Ĵ": 250,
      "ĵ": 251,
      "Ķ": 252,
      "ķ": 253,
      "ĸ": 254,
      "Ĺ": 255,
      "ĺ": 256,
      "Ļ": 257,
      "ļ": 258,
      "Ľ": 259,
      "ľ": 260,
      "Ŀ": 261,
      "ŀ": 262,
      "Ł": 263,
      "ł": 264,
      "Ń": 265,
      "ĠĠ": 266,
      "ĠĠĠĠ": 267,
      "ĠĠĠ": 268,
      "ĊĠĠĠĠ": 269,
      "in": 270,
      "at": 271,
      "on": 272,
      "ĊĠĠĠĠĠĠĠ": 273,
      "er": 274,
      "ĊĠĠĠ": 275,
      "or": 276,
      "st": 277,
      "re": 278,
      "se": 279,
      "Ġt": 280,
      "ĊĠĠĠĠĠĠĠĠ": 281,
      "le": 282,
      "Ġa": 283,
      "\"\"": 284,
      "al": 285,
      "en": 286,
      "Ġf": 287,
      "Ġp": 288,
      "ion": 289,
      "Ġ=": 290,
      "de": 291,
      "Ġc": 292,
      "it": 293,
      "ar": 294,
      "ĊĠĠĠĠĠĠĠĠĠĠĠ": 295,
      "==": 296,
      "me": 297,
      "ct": 298,
      "ing": 299,
      "Ġi": 300,
      "he": 301,
      "an": 302,
      "ce": 303,
      "--": 304,
      "ro": 305,
      "ur": 306,
      "Ġin": 307,
      "Ġre": 308,
      "Ġe": 309,
      "Ġn": 310,
      "Ġs": 311,
      "ut": 312,
      "\"\"\"": 313,
      "lo": 314,
      "ra": 315,
      "ge": 316,
      "mp": 317,
      "sel": 318,
      "self": 319,
      "\")": 320,
      "ate": 321,
      "Ġd": 322,
      "ss": 323,
      "Ġ\"": 324,
      "Ġm": 325,
      "Ġ#": 326,
      "str": 327,
      "Ġo": 328,
      "ent": 329,
      "int": 330,
      "Ġ\"\"\"": 331,
      "ĊĠĠĠĠĠĠĠĠĠĠĠĠ": 332,
      "Ġ(": 333,
      "nd": 334,
      "ĊĊĠĠĠ": 335,
      "Ġthe": 336,
      "ue": 337,
      "Ġb": 338,
      "pt": 339,
      "la": 340,
      "ot": 341,
      "====": 342,
      "ame": 343,
      "ed": 344,
      "fi": 345,
      "id": 346,
      "urn": 347,
      "ation": 348,
      "turn": 349,
      "Ġ-": 350,
      "Ġfor": 351,
      "Ġto": 352,
      "ata": 353,
      "ist": 354,
      "Ġ{": 355,
      "Ġw": 356,
      "()": 357,
      "ul": 358,
      "Ġself": 359,
      "ĠA": 360,
      "ĠT": 361,
      "un": 362,
      "ror": 363,
      "Ġif": 364,
      "Ġde": 365,
      "um": 366,
      "\",": 367,
      "----": 368,
      "ol": 369,
      "Ġpr": 370,
      "ad": 371,
      "ort": 372,
      "es": 373,
      "(\"": 374,
      "ic": 375,
      "is": 376,
      "Ġprint": 377,
      "ĠR": 378,
      "ĠC": 379,
      "ode": 380,
      "Ġand": 381,
      "age": 382,
      "us": 383,
      "ĠN": 384,
      "ĊĠĠĠĠĠĠĠĠĠĠĠĠĠĠĠ": 385,
      "pe": 386,
      "Ġex": 387,
      "Ġv": 388,
      "ch": 389,
      "te": 390,
      "Ġreturn": 391,
      "ĠS": 392,
      "ile": 393,
      "ath": 394,
      "up": 395,
      "):": 396,
      "el": 397,
      "ri": 398,
      "ĊĊĠĠĠĠĠĠĠ": 399,
      "ction": 400,
      "name": 401,
      "Ġ->": 402,
      "Ġof": 403,
      "ĠE": 404,
      "one": 405,
      "__": 406,
      "ĠI": 407,
      "Ġcon": 408,
      "iz": 409,
      "rror": 410,
      "ĠP": 411,
      "Ġstr": 412,
      "cept": 413,
      "ĠD": 414,
      "ck": 415,
      "Error": 416,
      "ter": 417,
      "di": 418,
      "rom": 419,
      "om": 420,
      "il": 421,
      "mport": 422,
      "and": 423,
      "ve": 424,
      "put": 425,
      "th": 426,
      "ĊĊ": 427,
      "et": 428,
      "ĠL": 429,
      "im": 430,
      "ig": 431,
      "}\")": 432,
      "\":": 433,
      "alue": 434,
      "ĠF": 435,
      "ĠNone": 436,
      "Ġnot": 437,
      "========": 438,
      "Ġ'": 439,
      "gs": 440,
      "Ġl": 441,
      "Ġlo": 442,
      "get": 443,
      "Ġse": 444,
      "ult": 445,
      "xt": 446,
      "ith": 447,
      "Ġdef": 448,
      "Ġas": 449,
      "Ġis": 450,
      "ain": 451,
      "Ġdata": 452,
      "pp": 453,
      "ĠRe": 454,
      "ĊĠĠĠĠĠĠĠĠĠĠĠĠĠĠĠĠ": 455,
      "as": 456,
      "ver": 457,
      "Ġh": 458,
      "ime": 459,
      "Ġst": 460,
      "od": 461,
      "ure": 462,
      "ise": 463,
      "path": 464,
      "ase": 465,
      "Ġg": 466,
      "ry": 467,
      "Ġfile": 468,
      "odel": 469,
      "ment": 470,
      "Ġwith": 471,
      "def": 472,
      "qu": 473,
      "ord": 474,
      "Ġ[": 475,
      "Ġpro": 476,
      "--------": 477,
      "ble": 478,
      "ers": 479,
      "con": 480,
      "ĊĠĠĠĠĊĠĠĠ": 481,
      "nt": 482,
      "mple": 483,
      "ĠO": 484,
      "Ġint": 485,
      "co": 486,
      "ĠM": 487,
      "data": 488,
      "est": 489,
      "ize": 490,
      "Ġus": 491,
      "ĠEx": 492,
      "ption": 493,
      "file": 494,
      "rgs": 495,
      "Ġexcept": 496,
      "vi": 497,
      "alid": 498,
      "Ġimport": 499,
      "Ġco": 500,
      "ine": 501,
      "Ġor": 502,
      "ĠV": 503,
      "end": 504,
      "ect": 505,
      "fig": 506,
      "art": 507,
      "que": 508,
      "Ġres": 509,
      "Ġr": 510,
      "ly": 511,
      "ke": 512,
      "li": 513,
      "lass": 514,
      "ma": 515,
      "ĠList": 516,
      "Ġra": 517,
      "ĠReturn": 518,
      "ĠArgs": 519,
      "po": 520,
      "ht": 521,
      "cess": 522,
      ".\")": 523,
      "error": 524,
      "orm": 525,
      "from": 526,
      "ow": 527,
      "unt": 528,
      "ĠReturns": 529,
      "ĠU": 530,
      "set": 531,
      "ype": 532,
      "ial": 533,
      "len": 534,
      "gg": 535,
      "Ġme": 536,
      "lay": 537,
      "res": 538,
      "),": 539,
      "ite": 540,
      "],": 541,
      "und": 542,
      "Ġtry": 543,
      "=\"": 544,
      "rue": 545,
      "Ġfrom": 546,
      "ity": 547,
      "Ġraise": 548,
      "ip": 549,
      "ance": 550,
      "his": 551,
      "ĊĠĠĠĠĠĠĠĠĠĠĠĠĠĠĠĠĠĠĠ": 552,
      "rain": 553,
      "per": 554,
      "Ġdi": 555,
      "ex": 556,
      "Ġ==": 557,
      "am": 558,
      "ew": 559,
      "Ġ+": 560,
      "Ġbe": 561,
      "loat": 562,
      "reate": 563,
      "quest": 564,
      "ptional": 565,
      "ray": 566,
      "able": 567,
      "Ġal": 568,
      "ample": 569,
      "umb": 570,
      ").": 571,
      "ception": 572,
      "ĠG": 573,
      "Ġmodel": 574,
      "to": 575,
      "ĊĠĠĠĠĠĠĠĠĊĠĠĠĠĠĠĠ": 576,
      "Ġy": 577,
      "ens": 578,
      "Ġsc": 579,
      "ser": 580,
      "ust": 581,
      "ject": 582,
      "Ġ)": 583,
      "ys": 584,
      "out": 585,
      "Ġan": 586,
      "ĠH": 587,
      "sc": 588,
      "pa": 589,
      "Ġnp": 590,
      "ĠIn": 591,
      "ub": 592,
      "]:": 593,
      "Ġpo": 594,
      "Ġ*": 595,
      "pro": 596,
      "Ġcont": 597,
      "ext": 598,
      "ces": 599,
      "ory": 600,
      "rect": 601,
      "rent": 602,
      "ive": 603,
      "ĠOptional": 604,
      "',": 605,
      "Ġma": 606,
      "================": 607,
      "Ġname": 608,
      "ound": 609,
      "ha": 610,
      "bel": 611,
      "if": 612,
      "red": 613,
      "Ġro": 614,
      "ir": 615,
      "date": 616,
      "pon": 617,
      "alueError": 618,
      "ĠThe": 619,
      "])": 620,
      "text": 621,
      "ĠException": 622,
      "ĠB": 623,
      "Ġth": 624,
      "mage": 625,
      "ore": 626,
      "uple": 627,
      "._": 628,
      "Ġtest": 629,
      "Ġuser": 630,
      "ary": 631,
      "ang": 632,
      "ack": 633,
      "ĠValueError": 634,
      "umber": 635,
      "Ġresult": 636,
      "import": 637,
      "Ġen": 638,
      "time": 639,
      "unction": 640,
      "form": 641,
      "eld": 642,
      "[\"": 643,
      "use": 644,
      "ard": 645,
      "ies": 646,
      "label": 647,
      "all": 648,
      "Ġinput": 649,
      "ict": 650,
      "Ġlist": 651,
      "Ġpar": 652,
      "key": 653,
      "Ġvalue": 654,
      "Ġlogg": 655,
      "Ġon": 656,
      "app": 657,
      "bo": 658,
      "Ġel": 659,
      "ight": 660,
      "Ġ__": 661,
      "alse": 662,
      "ec": 663,
      "pre": 664,
      "ange": 665,
      "Ġerror": 666,
      "ind": 667,
      "ponse": 668,
      "act": 669,
      "omm": 670,
      "ssage": 671,
      "array": 672,
      "Ġfloat": 673,
      "ĠCon": 674,
      "Ġch": 675,
      "ac": 676,
      "ule": 677,
      "lic": 678,
      "cted": 679,
      "ener": 680,
      "dex": 681,
      "tr": 682,
      "ifi": 683,
      "urrent": 684,
      "ature": 685,
      "Ġelse": 686,
      "par": 687,
      "Ġcol": 688,
      "ĊĠĠĠĠĠĠĠĠĠĠĠĠĠĠĠĠĠĠĠĠ": 689,
      "low": 690,
      "Ġ<": 691,
      "rame": 692,
      "ute": 693,
      "atch": 694,
      "))": 695,
      "ition": 696,
      "class": 697,
      "mo": 698,
      "uc": 699,
      "Ġpre": 700,
      "url": 701,
      "py": 702,
      "ns": 703,
      "Ġout": 704,
      "itial": 705,
      "Ġ_": 706,
      "Ġimage": 707,
      "ĠW": 708,
      "Ġtime": 709,
      "ON": 710,
      "base": 711,
      "..": 712,
      "Ġx": 713,
      "size": 714,
      "Ġar": 715,
      "Ġbo": 716,
      ".\"\"\"": 717,
      "\"]": 718,
      "Ġfunction": 719,
      "Ġset": 720,
      "val": 721,
      "Ġby": 722,
      "word": 723,
      "oc": 724,
      "Ġvalid": 725,
      "ms": 726,
      "Ġapp": 727,
      "Ġwh": 728,
      "dd": 729,
      "col": 730,
      "ep": 731,
      "ations": 732,
      "fo": 733,
      "ag": 734,
      "ty": 735,
      "ne": 736,
      "ĠAn": 737,
      "bject": 738,
      "----------------": 739,
      "Ġ`": 740,
      "ĠIf": 741,
      "Ġlen": 742,
      "Ġhe": 743,
      "test": 744,
      "In": 745,
      "ave": 746,
      "eature": 747,
      "our": 748,
      "iv": 749,
      "ates": 750,
      "ssion": 751,
      "ded": 752,
      "ans": 753,
      "count": 754,
      "Ġclass": 755,
      "value": 756,
      "AT": 757,
      "Ġpa": 758,
      "ff": 759,
      "min": 760,
      "ield": 761,
      "heck": 762,
      "Ġ>": 763,
      "Ġconfig": 764,
      "play": 765,
      "port": 766,
      "mat": 767,
      "Ġmain": 768,
      "ĠTrue": 769,
      "list": 770,
      "cl": 771,
      "ĠDict": 772,
      "ings": 773,
      "stance": 774,
      "odule": 775,
      "lot": 776,
      "ign": 777,
      "model": 778,
      "Ġuse": 779,
      "Ġget": 780,
      "ator": 781,
      "user": 782,
      "valid": 783,
      "ence": 784,
      "Ġcomp": 785,
      "type": 786,
      "ER": 787,
      "yp": 788,
      "ault": 789,
      "os": 790,
      "ated": 791,
      "Ġrequest": 792,
      "ĠFalse": 793,
      "ract": 794,
      "uct": 795,
      "ents": 796,
      "add": 797,
      "True": 798,
      "Ġle": 799,
      "ses": 800,
      "iled": 801,
      "dir": 802,
      "Ġup": 803,
      "ab": 804,
      "Ġpath": 805,
      "IN": 806,
      "op": 807,
      "uth": 808,
      "Ġall": 809,
      "ango": 810,
      "ĠTuple": 811,
      "ant": 812,
      "Ġos": 813,
      "jango": 814,
      "inal": 815,
      "line": 816,
      "Ġat": 817,
      "main": 818,
      "ndarray": 819,
      "arget": 820,
      "ailed": 821,
      "ĊĊĠĠĠĠĠĠĠĠĠĠĠ": 822,
      "':": 823,
      "ĠThis": 824,
      "ĠAny": 825,
      "ST": 826,
      "Ġoutput": 827,
      "ript": 828,
      "ach": 829,
      "ork": 830,
      "Ġusing": 831,
      "Ġtyp": 832,
      "ho": 833,
      "em": 834,
      "we": 835,
      "itle": 836,
      "hape": 837,
      "')": 838,
      "uration": 839,
      "cur": 840,
      "gra": 841,
      "otal": 842,
      "thod": 843,
      "Ġhand": 844,
      "read": 845,
      "Ġj": 846,
      "tri": 847,
      "old": 848,
      "Ġser": 849,
      "load": 850,
      "Ġ/": 851,
      "arn": 852,
      "train": 853,
      "Ġlogger": 854,
      "info": 855,
      "Ġun": 856,
      "ution": 857,
      "Re": 858,
      "ph": 859,
      "ari": 860,
      "ask": 861,
      "input": 862,
      "log": 863,
      "pl": 864,
      "ual": 865,
      "Ġ:": 866,
      "Ġcurrent": 867,
      "ommand": 868,
      "Ġlog": 869,
      "pected": 870,
      "rectory": 871,
      "ĠĠĠĠĠĠĠĠ": 872,
      "isplay": 873,
      "Ġtrain": 874,
      "image": 875,
      "ok": 876,
      "code": 877,
      "ann": 878,
      "av": 879,
      "ll": 880,
      "Ġcreate": 881,
      "Ġstring": 882,
      "Ġit": 883,
      "atus": 884,
      "emp": 885,
      "lt": 886,
      "ĠExample": 887,
      "qui": 888,
      "ap": 889,
      "Con": 890,
      "LE": 891,
      "Ġtext": 892,
      "Ġnumber": 893,
      "Ġbool": 894,
      "gth": 895,
      "Ġvi": 896,
      "ock": 897,
      "Ġwe": 898,
      "ful": 899,
      "Ġare": 900,
      "Ġfound": 901,
      "ĠDe": 902,
      "uccess": 903,
      "result": 904,
      "Ġmax": 905,
      "ery": 906,
      "Ġmessage": 907,
      "num": 908,
      "ters": 909,
      "ib": 910,
      "son": 911,
      "Ġline": 912,
      "ud": 913,
      "ĠCo": 914,
      "tp": 915,
      "own": 916,
      "Data": 917,
      "thon": 918,
      "ug": 919,
      "andom": 920,
      "las": 921,
      "config": 922,
      "Ġkey": 923,
      "sed": 924,
      "ĠRa": 925,
      "ild": 926,
      "Ġrange": 927,
      "Ġtyping": 928,
      "RE": 929,
      "ical": 930,
      "['": 931,
      "ises": 932,
      "ron": 933,
      "ail": 934,
      "Ġper": 935,
      "lean": 936,
      "():": 937,
      "pec": 938,
      "},": 939,
      "mb": 940,
      "This": 941,
      "Ġthat": 942,
      "Ġk": 943,
      "RL": 944,
      "---": 945,
      "eatures": 946,
      "Ġobject": 947,
      "ay": 948,
      "append": 949,
      "Ġinter": 950,
      "ments": 951,
      "ĠÐ": 952,
      ".,": 953,
      "args": 954,
      "Ġmodule": 955,
      "Ġstart": 956,
      "sent": 957,
      "Ġnum": 958,
      "dict": 959,
      "arch": 960,
      "ĠCreate": 961,
      "ert": 962,
      "ĊĠĠĠĠĠĠĠĠĠĠĠĠĠĠĠĠĠĠĠĠĠĠĠ": 963,
      "lient": 964,
      "'s": 965,
      "enc": 966,
      "Ġlabel": 967,
      "__(": 968,
      "ling": 969,
      "lication": 970,
      "Ġnew": 971,
      "Ġ[]": 972,
      "row": 973,
      "ob": 974,
      "ints": 975,
      "ĠLo": 976,
      "Ġac": 977,
      "Ġbase": 978,
      "ther": 979,
      "Ġexist": 980,
      "ĠRaises": 981,
      "vent": 982,
      "Ġ\"__": 983,
      "strip": 984,
      "Ġresponse": 985,
      "float": 986,
      "ctions": 987,
      "ĠPro": 988,
      "Ġscript": 989,
      "__\":": 990,
      "ific": 991,
      "vice": 992,
      "teg": 993,
      "ython": 994,
      "init": 995,
      "max": 996,
      "ĠPath": 997,
      "Ġload": 998,
      "PI": 999,
      "Ġqu": 1000,
      "itialize": 1001,
      "('": 1002,
      "item": 1003,
      "sh": 1004,
      "ines": 1005,
      "index": 1006,
      "Ġext": 1007,
      "ensor": 1008,
      "Ð¾": 1009,
      "OR": 1010,
      "lable": 1011,
      "Ġformat": 1012,
      "Ġpos": 1013,
      "ude": 1014,
      "Ġcontain": 1015,
      "che": 1016,
      "mail": 1017,
      "ĠK": 1018,
      "df": 1019,
      "ument": 1020,
      "Not": 1021,
      "Ġne": 1022,
      "Ġread": 1023,
      "Ðµ": 1024,
      "mon": 1025,
      "lace": 1026,
      "its": 1027,
      "ft": 1028,
      "work": 1029,
      "']": 1030,
      "atter": 1031,
      "Ġsub": 1032,
      "rans": 1033,
      "ml": 1034,
      "ey": 1035,
      "vel": 1036,
      "ĠX": 1037,
      "Ġprocess": 1038,
      "SE": 1039,
      "Ð°": 1040,
      "Ġmust": 1041,
      "pos": 1042,
      "uld": 1043,
      "Ġplt": 1044,
      "ĠJ": 1045,
      "ssword": 1046,
      "ource": 1047,
      "Ġrun": 1048,
      "ization": 1049,
      "='": 1050,
      "ere": 1051,
      "}:": 1052,
      "Ġgener": 1053,
      "mpty": 1054,
      "ility": 1055,
      "alc": 1056,
      "arning": 1057,
      "Ġ}": 1058,
      "List": 1059,
      "cont": 1060,
      "output": 1061,
      "les": 1062,
      "for": 1063,
      "Ġent": 1064,
      "Ġmo": 1065,
      "Ex": 1066,
      "quired": 1067,
      "rite": 1068,
      "rid": 1069,
      "ĠData": 1070,
      "pen": 1071,
      "Ġtype": 1072,
      "ace": 1073,
      "ateg": 1074,
      "Ġadd": 1075,
      "ree": 1076,
      "Ġrow": 1077,
      "roup": 1078,
      "ted": 1079,
      "order": 1080,
      "\"{": 1081,
      "ating": 1082,
      "Ġ=================": 1083,
      "Ġtarget": 1084,
      "lock": 1085,
      "Frame": 1086,
      "tep": 1087,
      "Ġvalues": 1088,
      "ors": 1089,
      "Ġmat": 1090,
      "back": 1091,
      "Ġlogging": 1092,
      "layer": 1093,
      "ustom": 1094,
      "np": 1095,
      "Ġfield": 1096,
      "start": 1097,
      "Ġeach": 1098,
      "Ġresults": 1099,
      "ME": 1100,
      "ax": 1101,
      "ulate": 1102,
      "DE": 1103,
      "com": 1104,
      "ress": 1105,
      "Ġsys": 1106,
      "Ġì": 1107,
      "rix": 1108,
      "ast": 1109,
      "().": 1110,
      "ĠSt": 1111,
      "jo": 1112,
      "Ġinteg": 1113,
      "instance": 1114,
      "irst": 1115,
      "ick": 1116,
      "idth": 1117,
      "Ġdate": 1118,
      "ameters": 1119,
      "Ġexec": 1120,
      "uild": 1121,
      "Ġsuccess": 1122,
      "ĠStep": 1123,
      "raw": 1124,
      "ized": 1125,
      "Ġdirectory": 1126,
      "arg": 1127,
      "ä¸": 1128,
      "Ġcount": 1129,
      "ĠURL": 1130,
      "Ġsy": 1131,
      "ative": 1132,
      "late": 1133,
      "nection": 1134,
      "request": 1135,
      "ics": 1136,
      "viron": 1137,
      "Ġman": 1138,
      "Ġdefault": 1139,
      "trib": 1140,
      "umn": 1141,
      "ĠFile": 1142,
      "ctionary": 1143,
      "idx": 1144,
      "Ġcommand": 1145,
      "rig": 1146,
      "loc": 1147,
      "indow": 1148,
      "Ġav": 1149,
      "Ð¸": 1150,
      "Ġend": 1151,
      "Ġmethod": 1152,
      "led": 1153,
      "(\"\\": 1154,
      "Ġmin": 1155,
      "Ġax": 1156,
      "ice": 1157,
      "ak": 1158,
      "Ġsh": 1159,
      "Ġfiles": 1160,
      "vert": 1161,
      "\"),": 1162,
      "Ġempty": 1163,
      "are": 1164,
      "shape": 1165,
      "temp": 1166,
      "cond": 1167,
      "Ġindex": 1168,
      "St": 1169,
      "Ġhas": 1170,
      "present": 1171,
      "Ġtotal": 1172,
      "rit": 1173,
      "Failed": 1174,
      "...\")": 1175,
      "Ġword": 1176,
      "ci": 1177,
      "Ġla": 1178,
      "Ġspec": 1179,
      "Ġnode": 1180,
      "title": 1181,
      "ink": 1182,
      "process": 1183,
      "Ġinstance": 1184,
      "Pro": 1185,
      "plit": 1186,
      "ĠType": 1187,
      "ĊĠĠĠĠĠĠĠĠĊĠĠĠ": 1188,
      "ĠID": 1189,
      "Ġthis": 1190,
      "ĠConfig": 1191,
      "ĠSet": 1192,
      "ĠValid": 1193,
      "Ġpd": 1194,
      "Ġsup": 1195,
      "ai": 1196,
      "param": 1197,
      "TP": 1198,
      "clude": 1199,
      "mi": 1200,
      "ele": 1201,
      "Ġass": 1202,
      "ark": 1203,
      "Ġ+=": 1204,
      "Ġdo": 1205,
      "Ġcheck": 1206,
      "plot": 1207,
      "Ġ%": 1208,
      "stem": 1209,
      "Ġstate": 1210,
      "message": 1211,
      "ken": 1212,
      "hold": 1213,
      "join": 1214,
      "Found": 1215,
      "Ġ'{": 1216,
      "Ġ---": 1217,
      "izer": 1218,
      "duct": 1219,
      "ĠUn": 1220,
      "Ġdf": 1221,
      "state": 1222,
      "ĠInitialize": 1223,
      "Ġhandling": 1224,
      "AR": 1225,
      "Ġ----------------": 1226,
      "ormal": 1227,
      "db": 1228,
      "da": 1229,
      "vers": 1230,
      "ID": 1231,
      "ariable": 1232,
      "by": 1233,
      "ĠMain": 1234,
      "Ġcode": 1235,
      "ler": 1236,
      "fer": 1237,
      "Ġtemp": 1238,
      "ĠDjango": 1239,
      "amp": 1240,
      "gram": 1241,
      "]]": 1242,
      "Ġed": 1243,
      "lp": 1244,
      "scri": 1245,
      "ÑĤ": 1246,
      "Ġele": 1247,
      "Ġtrans": 1248,
      "Ġid": 1249,
      "sv": 1250,
      "ump": 1251,
      "gger": 1252,
      "Ġother": 1253,
      "ions": 1254,
      "ĠQ": 1255,
      "lib": 1256,
      "river": 1257,
      "uthor": 1258,
      "Ġchar": 1259,
      "Res": 1260,
      "Ġreg": 1261,
      "Ġact": 1262,
      "filename": 1263,
      "af": 1264,
      "ĠTest": 1265,
      "Lo": 1266,
      "nect": 1267,
      "nder": 1268,
      "pri": 1269,
      "Ġz": 1270,
      "ĊĠĠĠĠĠĠĠĠĠĠĠĠĊĠĠĠĠĠĠĠĠĠĠĠ": 1271,
      "Ġmodels": 1272,
      "ĠPar": 1273,
      "pi": 1274,
      "cord": 1275,
      "Ġ<=": 1276,
      "([": 1277,
      "tings": 1278,
      "items": 1279,
      "comp": 1280,
      "].": 1281,
      "length": 1282,
      "SON": 1283,
      "Ġ===": 1284,
      "ull": 1285,
      "Ġdisplay": 1286,
      "Ġno": 1287,
      "Ġrequired": 1288,
      "utes": 1289,
      "##": 1290,
      "Ġ\"\"": 1291,
      "ĠHT": 1292,
      "ide": 1293,
      "create": 1294,
      "Ġ{\"": 1295,
      "}\"": 1296,
      "Ġconfiguration": 1297,
      "AL": 1298,
      "Ġcl": 1299,
      "bin": 1300,
      "ton": 1301,
      "lif": 1302,
      "point": 1303,
      "field": 1304,
      "yn": 1305,
      "Ġdatabase": 1306,
      "face": 1307,
      "Ġcor": 1308,
      "ĠAdd": 1309,
      "monstr": 1310,
      "Ġgra": 1311,
      "Ġarg": 1312,
      "Ġpage": 1313,
      "FI": 1314,
      "sub": 1315,
      "Ġ(\"": 1316,
      "Ġupdate": 1317,
      "move": 1318,
      "NotFound": 1319,
      "Ġprovi": 1320,
      "Ġdemonstr": 1321,
      "place": 1322,
      "sum": 1323,
      "Ġdataset": 1324,
      "Ġfirst": 1325,
      "Ġfil": 1326,
      "umns": 1327,
      "map": 1328,
      "ont": 1329,
      "pace": 1330,
      "ale": 1331,
      "The": 1332,
      "NotFoundError": 1333,
      "An": 1334,
      "vironment": 1335,
      "Ð¾Ð": 1336,
      "Ġ@": 1337,
      "Ġtf": 1338,
      "with": 1339,
      "valu": 1340,
      "Ġtra": 1341,
      "right": 1342,
      "Ġelif": 1343,
      "ong": 1344,
      "EN": 1345,
      "ular": 1346,
      "Ġver": 1347,
      "Ġad": 1348,
      "ass": 1349,
      "Ġ------------------------": 1350,
      "view": 1351,
      "ward": 1352,
      "ĠPython": 1353,
      "Ġ!": 1354,
      "pr": 1355,
      "Ġoper": 1356,
      "Ġapplication": 1357,
      "ear": 1358,
      "}'": 1359,
      "ader": 1360,
      "ailable": 1361,
      "Ġisinstance": 1362,
      "Ġform": 1363,
      "oth": 1364,
      "Ġcontext": 1365,
      "ĠDef": 1366,
      "ĠComp": 1367,
      ">>": 1368,
      "ÑĢ": 1369,
      "igh": 1370,
      "ttp": 1371,
      "ptim": 1372,
      "cod": 1373,
      "**": 1374,
      "())": 1375,
      "={": 1376,
      "Ġ!=": 1377,
      "ĠFileNotFoundError": 1378,
      "ify": 1379,
      "Ġrandom": 1380,
      "orch": 1381,
      "\"],": 1382,
      "SI": 1383,
      "Ð½": 1384,
      "ssing": 1385,
      "Ġcontin": 1386,
      "ote": 1387,
      "ultip": 1388,
      "DI": 1389,
      "Ġcontaining": 1390,
      "Ġbet": 1391,
      "status": 1392,
      "Ġsize": 1393,
      "Ġclean": 1394,
      "pping": 1395,
      "//": 1396,
      "andle": 1397,
      "ost": 1398,
      "Ġsave": 1399,
      "reg": 1400,
      "Field": 1401,
      "ome": 1402,
      "ĠAPI": 1403,
      "False": 1404,
      "sing": 1405,
      "ĠLoad": 1406,
      "scription": 1407,
      "utton": 1408,
      "Ġsample": 1409,
      "ĠGener": 1410,
      "der": 1411,
      "Ġcontent": 1412,
      "Ġcase": 1413,
      "fully": 1414,
      "Ġurl": 1415,
      "html": 1416,
      "ero": 1417,
      "Ġ>>>": 1418,
      "ĊĠĠĠĠĠĠĠĠĠĠĠĠĊĠĠĠĠĠĠĠ": 1419,
      "Ġcom": 1420,
      "Ġview": 1421,
      "Ġtitle": 1422,
      "})": 1423,
      "AN": 1424,
      "Ġ=========================": 1425,
      "Ġrepresent": 1426,
      "Ġpoint": 1427,
      "Ġdoc": 1428,
      "ffer": 1429,
      "node": 1430,
      "Ġhelp": 1431,
      "ulation": 1432,
      "Ġitem": 1433,
      "current": 1434,
      "Ġ**": 1435,
      "etwork": 1436,
      "Ġtraining": 1437,
      "ffi": 1438,
      "TI": 1439,
      "sample": 1440,
      "cent": 1441,
      "board": 1442,
      "exist": 1443,
      "frame": 1444,
      "Ġsum": 1445,
      "Ġcomple": 1446,
      "iginal": 1447,
      "ume": 1448,
      "ucture": 1449,
      "etch": 1450,
      "ML": 1451,
      "Ġsim": 1452,
      "ĠDi": 1453,
      "values": 1454,
      "ĠExt": 1455,
      "Ġopen": 1456,
      "Ġpy": 1457,
      "umbers": 1458,
      "Ġstatus": 1459,
      "annot": 1460,
      "ĠNumber": 1461,
      "Ñģ": 1462,
      "run": 1463,
      "Ġcontinue": 1464,
      "untime": 1465,
      "Un": 1466,
      "Ġloc": 1467,
      "Ġplot": 1468,
      "Ġcolor": 1469,
      "ix": 1470,
      "Ġcan": 1471,
      "Ġ[\"": 1472,
      "ank": 1473,
      "Ġfilename": 1474,
      "io": 1475,
      "Ġframe": 1476,
      "Ġå": 1477,
      "RO": 1478,
      "[:": 1479,
      "]):": 1480,
      "Ġinitial": 1481,
      "cre": 1482,
      "lasses": 1483,
      "annel": 1484,
      "Ġserver": 1485,
      "imum": 1486,
      "ĠCheck": 1487,
      "olution": 1488,
      "ait": 1489,
      "ĠImport": 1490,
      "Ġarray": 1491,
      ")}\")": 1492,
      "uring": 1493,
      "uments": 1494,
      "ĠIt": 1495,
      "Ġpart": 1496,
      "game": 1497,
      "quence": 1498,
      ")}": 1499,
      "method": 1500,
      "wo": 1501,
      "part": 1502,
      "ting": 1503,
      "alculate": 1504,
      "ĠJSON": 1505,
      "Ġquery": 1506,
      "Ġback": 1507,
      "istance": 1508,
      "SV": 1509,
      "ĠApp": 1510,
      "UT": 1511,
      "æķ": 1512,
      "ency": 1513,
      "ational": 1514,
      "Ġwhile": 1515,
      "Ġposition": 1516,
      "expected": 1517,
      "Ġanal": 1518,
      "lect": 1519,
      "object": 1520,
      "Ġ===========================": 1521,
      "ill": 1522,
      "json": 1523,
      "mission": 1524,
      "wise": 1525,
      "ou": 1526,
      "ĠSe": 1527,
      "lob": 1528,
      "hed": 1529,
      "Ġvalidation": 1530,
      "ager": 1531,
      "ĠY": 1532,
      "orted": 1533,
      "Ġproper": 1534,
      "GE": 1535,
      "Ġjson": 1536,
      "Ġinclude": 1537,
      "ta": 1538,
      "DataFrame": 1539,
      "ails": 1540,
      "not": 1541,
      "lose": 1542,
      "No": 1543,
      "response": 1544,
      "des": 1545,
      "du": 1546,
      "ps": 1547,
      "ible": 1548,
      "mplement": 1549,
      "poch": 1550,
      "action": 1551,
      "ĠInput": 1552,
      "og": 1553,
      "Ġinto": 1554,
      "Ġlabels": 1555,
      "Ġwhen": 1556,
      "ocket": 1557,
      "Ġexpected": 1558,
      "split": 1559,
      "itive": 1560,
      "update": 1561,
      "Ġpassword": 1562,
      "ights": 1563,
      "ccur": 1564,
      "exists": 1565,
      "lat": 1566,
      "CO": 1567,
      "Dict": 1568,
      "ĠGet": 1569,
      "http": 1570,
      "files": 1571,
      "Ġused": 1572,
      "write": 1573,
      "default": 1574,
      "Ġpredi": 1575,
      "Test": 1576,
      "ersion": 1577,
      "exit": 1578,
      "Ġtable": 1579,
      "attern": 1580,
      "ique": 1581,
      "Config": 1582,
      "stat": 1583,
      "ĠRuntime": 1584,
      "ifier": 1585,
      "inter": 1586,
      "box": 1587,
      "fil": 1588,
      "ĠRes": 1589,
      "page": 1590,
      "Ġgame": 1591,
      "Ġ]": 1592,
      "Ġmatch": 1593,
      "models": 1594,
      "issing": 1595,
      "ru": 1596,
      "Ġsearch": 1597,
      "MA": 1598,
      "Ġfailed": 1599,
      "hould": 1600,
      "keys": 1601,
      "ategory": 1602,
      "ĠExtract": 1603,
      "isual": 1604,
      "lease": 1605,
      "Ġbased": 1606,
      "Ġinst": 1607,
      "ĠRuntimeError": 1608,
      "Ġclient": 1609,
      "(),": 1610,
      "Ġæ": 1611,
      "ous": 1612,
      "ities": 1613,
      "\"\\": 1614,
      "width": 1615,
      "csv": 1616,
      "Ġorder": 1617,
      "ĠPre": 1618,
      "LA": 1619,
      ":.": 1620,
      "ptions": 1621,
      "Ġenvironment": 1622,
      "Key": 1623,
      "Co": 1624,
      "Ġbatch": 1625,
      "Ġavailable": 1626,
      "acy": 1627,
      "round": 1628,
      "è¯": 1629,
      "Ġdjango": 1630,
      "Ġcv": 1631,
      "aded": 1632,
      "Ġfeatures": 1633,
      "ision": 1634,
      "Ġnon": 1635,
      "://": 1636,
      "PAT": 1637,
      "Ġcustom": 1638,
      "Ġduring": 1639,
      "TE": 1640,
      "level": 1641,
      "ĠValidate": 1642,
      "ores": 1643,
      "ential": 1644,
      "Ġcharact": 1645,
      "Ġrender": 1646,
      "Ġ----------------------------": 1647,
      "sign": 1648,
      "bs": 1649,
      "ĊĠĠĠĠĠĠĠĠĠĠĠĠĠĠĠĠĠĠĠĠĠĠĠĠ": 1650,
      "Ġâ": 1651,
      "Ġtorch": 1652,
      "ices": 1653,
      "ysis": 1654,
      "ĠTypeError": 1655,
      "Ġvariable": 1656,
      "ĠHttp": 1657,
      "ches": 1658,
      "åı": 1659,
      "target": 1660,
      "pdate": 1661,
      "reen": 1662,
      "Ġnames": 1663,
      "Model": 1664,
      "number": 1665,
      "Ġshape": 1666,
      "Ġone": 1667,
      "formation": 1668,
      "ĠUser": 1669,
      "Ġlength": 1670,
      "stamp": 1671,
      "Ġstructure": 1672,
      "Ġconnection": 1673,
      "ĠFor": 1674,
      "util": 1675,
      "no": 1676,
      "ES": 1677,
      "tes": 1678,
      "iven": 1679,
      "ðŁ": 1680,
      "Ġdictionary": 1681,
      "string": 1682,
      "Ġim": 1683,
      "rate": 1684,
      "ures": 1685,
      "save": 1686,
      "Ġparameters": 1687,
      "idd": 1688,
      "ĠKey": 1689,
      "Ġstep": 1690,
      "query": 1691,
      "Ġdoes": 1692,
      "Ġemail": 1693,
      "Ġoriginal": 1694,
      "]]:": 1695,
      "Ġë": 1696,
      "color": 1697,
      "Ġ.": 1698,
      "step": 1699,
      "results": 1700,
      "man": 1701,
      "lete": 1702,
      "fir": 1703,
      "sys": 1704,
      "ĠAt": 1705,
      "lection": 1706,
      "Ġmultip": 1707,
      "case": 1708,
      "Ġdete": 1709,
      "total": 1710,
      "Ġfinal": 1711,
      "Ġdb": 1712,
      "Ġdis": 1713,
      "reshold": 1714,
      "Ġover": 1715,
      "trans": 1716,
      "ification": 1717,
      "gging": 1718,
      "random": 1719,
      "fter": 1720,
      "ca": 1721,
      "attr": 1722,
      "Ġevent": 1723,
      "Ġsettings": 1724,
      "ucational": 1725,
      "Response": 1726,
      "dices": 1727,
      "Request": 1728,
      "content": 1729,
      "rol": 1730,
      ":\")": 1731,
      "ved": 1732,
      "imit": 1733,
      "wargs": 1734,
      "UL": 1735,
      "Ġtuple": 1736,
      "Type": 1737,
      "Ġcur": 1738,
      "cor": 1739,
      "root": 1740,
      "CH": 1741,
      "PATH": 1742,
      "((": 1743,
      "åĪ": 1744,
      "Ġencod": 1745,
      "Ġfilter": 1746,
      "Ġsav": 1747,
      "parse": 1748,
      "table": 1749,
      "Ġens": 1750,
      "...": 1751,
      "ister": 1752,
      "names": 1753,
      "Ch": 1754,
      "ãĢ": 1755,
      "img": 1756,
      "Ġinvalid": 1757,
      "Ġusage": 1758,
      "ween": 1759,
      "Ġob": 1760,
      "ĠEn": 1761,
      "adata": 1762,
      "ĠConfiguration": 1763,
      "pha": 1764,
      "ider": 1765,
      "æķ°": 1766,
      "Ġcolumn": 1767,
      "Ġmatrix": 1768,
      "Ġoccur": 1769,
      "umpy": 1770,
      "Ġrequests": 1771,
      "Ġtwo": 1772,
      "Ġinteger": 1773,
      "ern": 1774,
      "OST": 1775,
      "allback": 1776,
      "rel": 1777,
      "Ġextract": 1778,
      "batch": 1779,
      "Ġvalidate": 1780,
      "Ġsupport": 1781,
      "utf": 1782,
      "lask": 1783,
      "stant": 1784,
      "new": 1785,
      "Ġsu": 1786,
      "mary": 1787,
      "Ð»": 1788,
      "loss": 1789,
      "ĠPer": 1790,
      "client": 1791,
      "score": 1792,
      "En": 1793,
      "bug": 1794,
      "ts": 1795,
      "ren": 1796,
      "ences": 1797,
      "Ġgiven": 1798,
      "ified": 1799,
      "yz": 1800,
      "based": 1801,
      "\"])": 1802,
      "Ġexecution": 1803,
      "Ġvia": 1804,
      "ql": 1805,
      "Ġsecond": 1806,
      "ordin": 1807,
      "Ġsetup": 1808,
      "ĠWe": 1809,
      "bose": 1810,
      "entic": 1811,
      "ell": 1812,
      "Ġimages": 1813,
      "Ġany": 1814,
      "sor": 1815,
      "ability": 1816,
      "comm": 1817,
      "Ġbin": 1818,
      "Ġfields": 1819,
      "group": 1820,
      "uthentic": 1821,
      "Ġversion": 1822,
      "ĠCSV": 1823,
      "ference": 1824,
      "Ġtesting": 1825,
      "ids": 1826,
      "Ġmode": 1827,
      "NA": 1828,
      "filter": 1829,
      "lower": 1830,
      "Ġdatetime": 1831,
      "çļ": 1832,
      "params": 1833,
      "Ġonly": 1834,
      "try": 1835,
      "Ġroot": 1836,
      "Ġotherwise": 1837,
      "ves": 1838,
      "ãģ": 1839,
      "çļĦ": 1840,
      "ĠHTTP": 1841,
      "tra": 1842,
      "ning": 1843,
      "LO": 1844,
      "çĶ": 1845,
      "labels": 1846,
      "umer": 1847,
      "fix": 1848,
      "Ġmanage": 1849,
      "][": 1850,
      "åħ": 1851,
      "Ġbetween": 1852,
      "Ġwork": 1853,
      "Ġparser": 1854,
      "requ": 1855,
      "roll": 1856,
      "grid": 1857,
      "words": 1858,
      "Ġsign": 1859,
      "Ġsystem": 1860,
      "Ġsession": 1861,
      "ING": 1862,
      "ĊĊĠĠĠĠĠĠĠĠĠĠĠĠĠĠĠ": 1863,
      "features": 1864,
      "version": 1865,
      "ner": 1866,
      "fields": 1867,
      "unc": 1868,
      "Ġgenerate": 1869,
      "ĠUnion": 1870,
      "Ġnumbers": 1871,
      "qual": 1872,
      "Ġshould": 1873,
      "Ġtop": 1874,
      "Ġstat": 1875,
      "Ġcannot": 1876,
      "Author": 1877,
      "Ġbest": 1878,
      "points": 1879,
      "AD": 1880,
      "ìĿ": 1881,
      "TH": 1882,
      "filepath": 1883,
      "Date": 1884,
      "Invalid": 1885,
      "bu": 1886,
      "Ġtask": 1887,
      "show": 1888,
      "reak": 1889,
      "Ġgroup": 1890,
      "wer": 1891,
      "range": 1892,
      "CT": 1893,
      "cle": 1894,
      "ĠTrain": 1895,
      "({": 1896,
      "Ġwhere": 1897,
      "Ġport": 1898,
      "Ġwindow": 1899,
      "gative": 1900,
      "tadata": 1901,
      "Ġblock": 1902,
      "oice": 1903,
      "Ser": 1904,
      "my": 1905,
      ".\"": 1906,
      "Ġtoken": 1907,
      "ipe": 1908,
      "æľ": 1909,
      "env": 1910,
      "Ġpass": 1911,
      "cessed": 1912,
      "ingle": 1913,
      "actor": 1914,
      "idget": 1915,
      "verage": 1916,
      "Ġpost": 1917,
      "Ġimplement": 1918,
      "uto": 1919,
      "Ġph": 1920,
      "Tuple": 1921,
      "lines": 1922,
      "utput": 1923,
      "ĠConvert": 1924,
      "Ġallow": 1925,
      "email": 1926,
      "ash": 1927,
      "ody": 1928,
      "lobal": 1929,
      "Ġlines": 1930,
      "aders": 1931,
      "Ġ{}": 1932,
      "Ġpack": 1933,
      "Ġevalu": 1934,
      "Ġfind": 1935,
      "so": 1936,
      "ross": 1937,
      "Ġsuccessfully": 1938,
      "Ġnext": 1939,
      "iter": 1940,
      "host": 1941,
      "eve": 1942,
      "ream": 1943,
      "Ġarguments": 1944,
      "Ġargs": 1945,
      "Ġrecord": 1946,
      "Ġmissing": 1947,
      "ension": 1948,
      "Se": 1949,
      "fore": 1950,
      "Ġproject": 1951,
      "ĠRun": 1952,
      "ollow": 1953,
      "ĠEns": 1954,
      "tributes": 1955,
      "Ġafter": 1956,
      "ĠName": 1957,
      "char": 1958,
      "Ġuses": 1959,
      "Ġlast": 1960,
      "tic": 1961,
      "Ġfeature": 1962,
      "ĠGenerate": 1963,
      "top": 1964,
      "===": 1965,
      "let": 1966,
      "Ġproduct": 1967,
      "verse": 1968,
      "password": 1969,
      "Ġparse": 1970,
      "div": 1971,
      "gn": 1972,
      "logger": 1973,
      "kwargs": 1974,
      "ownload": 1975,
      "================================": 1976,
      "}.": 1977,
      "command": 1978,
      "Ġexists": 1979,
      "dim": 1980,
      "txt": 1981,
      "Ġencoding": 1982,
      "itions": 1983,
      "ä»": 1984,
      "Ġcomm": 1985,
      "api": 1986,
      "driver": 1987,
      "Ġsorted": 1988,
      "ameter": 1989,
      "classes": 1990,
      "Ġimg": 1991,
      "Ġprocessing": 1992,
      "arity": 1993,
      "ish": 1994,
      "ich": 1995,
      "Ġperform": 1996,
      "ĠUpdate": 1997,
      "ration": 1998,
      "ĠUse": 1999,
      "\").": 2000,
      "matrix": 2001,
      "SS": 2002,
      "ĠHandle": 2003,
      "ories": 2004,
      "deo": 2005,
      "Ġ>=": 2006,
      "HT": 2007,
      "Ġbuild": 2008,
      "be": 2009,
      "username": 2010,
      "Ġmod": 2011,
      "rupt": 2012,
      "tern": 2013,
      "Ġaction": 2014,
      "doc": 2015,
      "}\",": 2016,
      "Ġfull": 2017,
      "derr": 2018,
      "ĠImportError": 2019,
      "Ġparam": 2020,
      "Ġedge": 2021,
      "Ġdirect": 2022,
      "Ġrel": 2023,
      "ecute": 2024,
      "ld": 2025,
      "of": 2026,
      "left": 2027,
      "Ġnumpy": 2028,
      "layers": 2029,
      "Ġdict": 2030,
      "Ġverbose": 2031,
      "ding": 2032,
      "format": 2033,
      "direct": 2034,
      "sy": 2035,
      "token": 2036,
      "Ġoptim": 2037,
      "Ġtemplate": 2038,
      "assert": 2039,
      "DIR": 2040,
      "msg": 2041,
      "rop": 2042,
      "RI": 2043,
      "åĲ": 2044,
      "erson": 2045,
      "Ġplayer": 2046,
      "Ġenumer": 2047,
      "Ġelement": 2048,
      "imal": 2049,
      "QL": 2050,
      "Tensor": 2051,
      "lick": 2052,
      "find": 2053,
      "post": 2054,
      "Ġwidth": 2055,
      "Set": 2056,
      "CA": 2057,
      "FA": 2058,
      "It": 2059,
      "Ġhave": 2060,
      "Ġsk": 2061,
      "LI": 2062,
      "flow": 2063,
      "Ġreal": 2064,
      "ĠNo": 2065,
      "sert": 2066,
      "FILE": 2067,
      "User": 2068,
      "Ġbreak": 2069,
      "dataset": 2070,
      "iew": 2071,
      "queue": 2072,
      "pect": 2073,
      "Ġenumerate": 2074,
      "ĊĠĠĠĠĠĠĠĠĠĠĠĠĠĠĠĠĠĠĠĠĠĠĠĠĠĠĠ": 2075,
      "copy": 2076,
      "Ġpython": 2077,
      "sp": 2078,
      "Ġgrid": 2079,
      "ĠModel": 2080,
      "Ġcre": 2081,
      "Ġfont": 2082,
      "irs": 2083,
      "Ġsource": 2084,
      "\"â": 2085,
      "check": 2086,
      "Ġ|": 2087,
      "ĠCompute": 2088,
      "ically": 2089,
      "ĠDictionary": 2090,
      "Ġnetwork": 2091,
      "Exception": 2092,
      "ense": 2093,
      "uster": 2094,
      "ector": 2095,
      "lected": 2096,
      "encies": 2097,
      "bot": 2098,
      "Ġcolumns": 2099,
      "asic": 2100,
      "mark": 2101,
      "ie": 2102,
      "rection": 2103,
      "rc": 2104,
      "ĠSc": 2105,
      "Ġoperations": 2106,
      "ĠDisplay": 2107,
      "mean": 2108,
      "Ġnormal": 2109,
      "Ġdiffer": 2110,
      "trics": 2111,
      "Ġheight": 2112,
      "search": 2113,
      "curacy": 2114,
      "Ġ),": 2115,
      "ĠRead": 2116,
      "ãĥ": 2117,
      "Ġdocument": 2118,
      "ake": 2119,
      "=(": 2120,
      "Ġusername": 2121,
      "pack": 2122,
      "ĠError": 2123,
      "MP": 2124,
      "directory": 2125,
      "ten": 2126,
      "obj": 2127,
      "Ġoccurred": 2128,
      "graph": 2129,
      "andler": 2130,
      "ool": 2131,
      "columns": 2132,
      "ĠAss": 2133,
      "Ġprovided": 2134,
      "md": 2135,
      "ĠProcess": 2136,
      "Ġbu": 2137,
      "session": 2138,
      "\"))": 2139,
      "Ġright": 2140,
      "Ġlevel": 2141,
      "riter": 2142,
      "Name": 2143,
      "imple": 2144,
      "Ġval": 2145,
      "Ġgraph": 2146,
      "Ġsuper": 2147,
      "gener": 2148,
      "####": 2149,
      "go": 2150,
      "Ġinformation": 2151,
      "Ġpoints": 2152,
      "Ġtri": 2153,
      "Ġspecified": 2154,
      "andard": 2155,
      "NAME": 2156,
      "eded": 2157,
      "Ġsingle": 2158,
      "ender": 2159,
      "Ġvisual": 2160,
      "RA": 2161,
      "ng": 2162,
      "ipeline": 2163,
      "Ġerrors": 2164,
      "yle": 2165,
      "ĠDataFrame": 2166,
      "ache": 2167,
      "Ġsp": 2168,
      "File": 2169,
      "Ġcorrect": 2170,
      "ffici": 2171,
      "last": 2172,
      "Par": 2173,
      "Ġsent": 2174,
      "ĊĠĠĠĠĠĠĠĠĠĠĠĠĠĠĠĠĠĠĠĠĠĠĠĠĠĠĠĠ": 2175,
      "mbol": 2176,
      "Ġprogram": 2177,
      "duction": 2178,
      "ving": 2179,
      "Ġmon": 2180,
      "Ġlink": 2181,
      "allable": 2182,
      "Ġassert": 2183,
      "stderr": 2184,
      "Ġsequence": 2185,
      "ia": 2186,
      "istr": 2187,
      "GI": 2188,
      "Input": 2189,
      "udent": 2190,
      "Ġ('": 2191,
      "ĠDefine": 2192,
      "height": 2193,
      "OT": 2194,
      "Ġretri": 2195,
      "tribute": 2196,
      "angu": 2197,
      "istory": 2198,
      "layout": 2199,
      "udi": 2200,
      "Ġiter": 2201,
      "ness": 2202,
      "None": 2203,
      "atterns": 2204,
      "ATE": 2205,
      "ctor": 2206,
      "URL": 2207,
      "Ġraw": 2208,
      "ãĢĤ": 2209,
      "Ġmultiple": 2210,
      "izes": 2211,
      "ET": 2212,
      "Ġelements": 2213,
      "link": 2214,
      "Ġaccess": 2215,
      "Ġentry": 2216,
      "Ġag": 2217,
      "åŃ": 2218,
      "var": 2219,
      "ĠFlask": 2220,
      "ĠAr": 2221,
      "anguage": 2222,
      "å¤": 2223,
      "afe": 2224,
      "ATA": 2225,
      "pend": 2226,
      "Ġdim": 2227,
      "ĠSim": 2228,
      "Ġdet": 2229,
      "ins": 2230,
      "pred": 2231,
      "omain": 2232,
      "spec": 2233,
      "Ġleft": 2234,
      "ĿĮ": 2235,
      "ient": 2236,
      "Ġpositive": 2237,
      "Ġprovides": 2238,
      "Ġli": 2239,
      "Ġinterface": 2240,
      "Time": 2241,
      "unter": 2242,
      "Ġloss": 2243,
      "Inter": 2244,
      "Ġconnect": 2245,
      "Ġca": 2246,
      "itional": 2247,
      "æĸ": 2248,
      "ĠCh": 2249,
      "Ġ::": 2250,
      "ĠEnsure": 2251,
      "Ġmetadata": 2252,
      "Ġalpha": 2253,
      "ĠImage": 2254,
      ".\",": 2255,
      "close": 2256,
      "Ġloop": 2257,
      "ĠCol": 2258,
      "Ġcons": 2259,
      "ntry": 2260,
      "Ġcent": 2261,
      "ets": 2262,
      "alled": 2263,
      "angle": 2264,
      "ĠTime": 2265,
      "Ġter": 2266,
      "Ġpattern": 2267,
      "Ġbound": 2268,
      "Ġdig": 2269,
      "Ġparent": 2270,
      "ely": 2271,
      "Ġsend": 2272,
      "Ġboth": 2273,
      "ĠStart": 2274,
      "loy": 2275,
      "ĠHTML": 2276,
      "mask": 2277,
      "ĠOutput": 2278,
      "now": 2279,
      "Ġdescription": 2280,
      "mbda": 2281,
      "Ġspecific": 2282,
      "Ġident": 2283,
      "Ġev": 2284,
      "IT": 2285,
      "Ġmessages": 2286,
      "tring": 2287,
      "íķ": 2288,
      "nown": 2289,
      "ä½": 2290,
      "Ġtensor": 2291,
      "onents": 2292,
      "term": 2293,
      "è¡": 2294,
      "empty": 2295,
      "Ġwords": 2296,
      "Ġscore": 2297,
      "django": 2298,
      "ULT": 2299,
      "dis": 2300,
      "ready": 2301,
      "Ã¡": 2302,
      "Ġpaths": 2303,
      "DB": 2304,
      "objects": 2305,
      "enu": 2306,
      "Ġserial": 2307,
      "ãĤ": 2308,
      "Ġfollow": 2309,
      "connect": 2310,
      "argument": 2311,
      "gre": 2312,
      "oid": 2313,
      "Ġweb": 2314,
      "Ġoptional": 2315,
      "çĶ¨": 2316,
      "pped": 2317,
      "Ġbut": 2318,
      "strib": 2319,
      "upport": 2320,
      "Ġincludes": 2321,
      "Ġaddress": 2322,
      "'t": 2323,
      "hether": 2324,
      "sg": 2325,
      "MO": 2326,
      "idden": 2327,
      "CK": 2328,
      "ynam": 2329,
      "print": 2330,
      "Ġdevice": 2331,
      "ĠNote": 2332,
      "Col": 2333,
      "Ġcreated": 2334,
      "eros": 2335,
      "Ġab": 2336,
      "oint": 2337,
      "UN": 2338,
      "ĠAl": 2339,
      "warning": 2340,
      "ZE": 2341,
      "Me": 2342,
      "\"):": 2343,
      "CE": 2344,
      "als": 2345,
      "first": 2346,
      "Ġdistance": 2347,
      "template": 2348,
      "samples": 2349,
      "Bo": 2350,
      "stants": 2351,
      "De": 2352,
      "âĢ": 2353,
      "book": 2354,
      "Ġshow": 2355,
      "PE": 2356,
      "Warning": 2357,
      "login": 2358,
      "ĠCalculate": 2359,
      "images": 2360,
      "Ñĥ": 2361,
      "ATI": 2362,
      "Ġfetch": 2363,
      "Ġanalysis": 2364,
      "price": 2365,
      "ined": 2366,
      "requency": 2367,
      "ibility": 2368,
      "Ġbefore": 2369,
      "Ðº": 2370,
      "Ġsaved": 2371,
      "iment": 2372,
      "ĠSer": 2373,
      "Form": 2374,
      "BA": 2375,
      "Ġintegers": 2376,
      "ĠSave": 2377,
      "uding": 2378,
      "CON": 2379,
      "fit": 2380,
      "cluding": 2381,
      "Ġthread": 2382,
      "Ġunique": 2383,
      "Sc": 2384,
      "=[": 2385,
      "wh": 2386,
      "wait": 2387,
      "ground": 2388,
      "cat": 2389,
      "Ġlogic": 2390,
      "match": 2391,
      "unk": 2392,
      "leep": 2393,
      "pol": 2394,
      "display": 2395,
      "ref": 2396,
      "Ġappro": 2397,
      "pth": 2398,
      "ĠHttpResponse": 2399,
      "gor": 2400,
      "ĠPr": 2401,
      "Ġcoordin": 2402,
      "net": 2403,
      "Ġtrack": 2404,
      "Ġlogin": 2405,
      "ernel": 2406,
      "day": 2407,
      "Ġfails": 2408,
      "eed": 2409,
      "Ġcompute": 2410,
      "Ġadmin": 2411,
      "peed": 2412,
      "itor": 2413,
      "Ġbinary": 2414,
      "Ġcharacters": 2415,
      "script": 2416,
      "Ġpygame": 2417,
      "admin": 2418,
      "active": 2419,
      "Ġwas": 2420,
      "Ġpackage": 2421,
      "older": 2422,
      "itude": 2423,
      "ensions": 2424,
      "Ġrows": 2425,
      "bar": 2426,
      "Ġchannel": 2427,
      "æĪ": 2428,
      "Ġhost": 2429,
      "ç»": 2430,
      "down": 2431,
      "nn": 2432,
      "device": 2433,
      "ĠLog": 2434,
      "Ġso": 2435,
      "gorith": 2436,
      "SIZE": 2437,
      "udio": 2438,
      "\"}": 2439,
      "pes": 2440,
      "era": 2441,
      "ĠEd": 2442,
      "ĠDefault": 2443,
      "Ġbot": 2444,
      "ĠParameters": 2445,
      "!\")": 2446,
      "holder": 2447,
      "Ġneeded": 2448,
      "Ġtimeout": 2449,
      "Ġensure": 2450,
      "year": 2451,
      "description": 2452,
      "Ġmethods": 2453,
      "ality": 2454,
      "utom": 2455,
      "ĠPy": 2456,
      "Ġhandle": 2457,
      "cy": 2458,
      "parent": 2459,
      "åĬ": 2460,
      "tf": 2461,
      "Ġu": 2462,
      "channel": 2463,
      "clean": 2464,
      "FO": 2465,
      "Ġyear": 2466,
      "source": 2467,
      "Ð¼": 2468,
      "gine": 2469,
      "ugh": 2470,
      "Ġactual": 2471,
      "window": 2472,
      "off": 2473,
      "rypt": 2474,
      "gment": 2475,
      "coded": 2476,
      "ian": 2477,
      "Ġloading": 2478,
      "https": 2479,
      "stra": 2480,
      "block": 2481,
      "Ġfig": 2482,
      "Ġstrings": 2483,
      "Ġlayer": 2484,
      "ene": 2485,
      "Ġreturns": 2486,
      "Ġmark": 2487,
      "Ġusers": 2488,
      "å®": 2489,
      "Ar": 2490,
      "static": 2491,
      "è¿": 2492,
      "utils": 2493,
      "uted": 2494,
      "Ġchange": 2495,
      "ĠFunction": 2496,
      "Ġmask": 2497,
      "Ġrepresentation": 2498,
      "Ġtheir": 2499,
      "Ġpol": 2500,
      "aries": 2501,
      "Ġwhich": 2502,
      "mode": 2503,
      "rome": 2504,
      "Ġmove": 2505,
      "debug": 2506,
      "ural": 2507,
      "Ġits": 2508,
      "Ġthreshold": 2509,
      "Ġobjects": 2510,
      "uthentication": 2511,
      "weight": 2512,
      "send": 2513,
      "Ġparams": 2514,
      "ators": 2515,
      "vis": 2516,
      "server": 2517,
      "Ġyou": 2518,
      "Ġdec": 2519,
      "ware": 2520,
      "ighb": 2521,
      "eta": 2522,
      "bl": 2523,
      "Ġ\".": 2524,
      "rand": 2525,
      "Ġpract": 2526,
      "Start": 2527,
      "logging": 2528,
      "Ġitems": 2529,
      "task": 2530,
      "</": 2531,
      "product": 2532,
      "position": 2533,
      "module": 2534,
      "Ġcases": 2535,
      "Ð²": 2536,
      "Ñı": 2537,
      ")]": 2538,
      "Ġactiv": 2539,
      "Ġexample": 2540,
      "US": 2541,
      "FAULT": 2542,
      "mbed": 2543,
      "Ġ...": 2544,
      "ater": 2545,
      "context": 2546,
      "ĠWeb": 2547,
      "Ġweight": 2548,
      "next": 2549,
      "Ġvari": 2550,
      "Node": 2551,
      "TION": 2552,
      "emon": 2553,
      "}\\": 2554,
      "Ġinputs": 2555,
      "(\"/": 2556,
      "ays": 2557,
      "Ġcompleted": 2558,
      "View": 2559,
      "Ġbytes": 2560,
      "ĠAd": 2561,
      "kens": 2562,
      "}/": 2563,
      "Ġimplementation": 2564,
      "Ġpredictions": 2565,
      "epoch": 2566,
      "ries": 2567,
      "ĠFind": 2568,
      "gest": 2569,
      "change": 2570,
      "Ġcalc": 2571,
      "indices": 2572,
      "Ġviews": 2573,
      "Ġdemonstrates": 2574,
      "Ġcell": 2575,
      "Ġepoch": 2576,
      "dig": 2577,
      "Ġlib": 2578,
      "ĠEntry": 2579,
      "Ġfunctions": 2580,
      "lish": 2581,
      "Any": 2582,
      "med": 2583,
      "Ġwrite": 2584,
      "ĨĴ": 2585,
      "erge": 2586,
      "abel": 2587,
      "ĠFeatures": 2588,
      "element": 2589,
      "Ġ//": 2590,
      "Ġheader": 2591,
      "Ġseconds": 2592,
      "Ġprice": 2593,
      "Text": 2594,
      "Ġexp": 2595,
      "UM": 2596,
      "scale": 2597,
      "axis": 2598,
      "App": 2599,
      "Ġsol": 2600,
      "Ġexecute": 2601,
      "ĠMe": 2602,
      "urls": 2603,
      "event": 2604,
      "eras": 2605,
      "åº": 2606,
      "Ġhow": 2607,
      "Ġ},": 2608,
      "Ġgot": 2609,
      "ee": 2610,
      "Ġweights": 2611,
      "ĠCustom": 2612,
      "Ġvariables": 2613,
      "stru": 2614,
      "Ñĭ": 2615,
      "Ġextra": 2616,
      "Ġcursor": 2617,
      "ĠParse": 2618,
      "ED": 2619,
      "bit": 2620,
      "struct": 2621,
      "Ġdemonstrate": 2622,
      "socket": 2623,
      "std": 2624,
      "Ġq": 2625,
      "Ġrate": 2626,
      "Ġredirect": 2627,
      "Ġproduction": 2628,
      "player": 2629,
      "Cont": 2630,
      "any": 2631,
      "Ġalready": 2632,
      "SGI": 2633,
      "Ġgo": 2634,
      "ëĭ": 2635,
      "Ġtimestamp": 2636,
      "Ġbutton": 2637,
      "delete": 2638,
      "cip": 2639,
      "Image": 2640,
      "iod": 2641,
      "ternal": 2642,
      "ĠConfigure": 2643,
      "Ġdesign": 2644,
      "Ġjob": 2645,
      "ado": 2646,
      "Ġmore": 2647,
      "_{": 2648,
      "amera": 2649,
      "ATION": 2650,
      "Ã£": 2651,
      "return": 2652,
      "Ġlocal": 2653,
      "POST": 2654,
      ".__": 2655,
      "Ġoptions": 2656,
      "Ġyour": 2657,
      "äº": 2658,
      "Ġeducational": 2659,
      "ination": 2660,
      "open": 2661,
      "predi": 2662,
      "lear": 2663,
      "Ġvideo": 2664,
      "ĠForm": 2665,
      "func": 2666,
      "Ġscra": 2667,
      "Ġmean": 2668,
      "ĠBase": 2669,
      "ystem": 2670,
      "Ġsame": 2671,
      "TO": 2672,
      "Ã£o": 2673,
      "Ġmanagement": 2674,
      "button": 2675,
      "velo": 2676,
      "Ġplace": 2677,
      "Ġanalyz": 2678,
      "\"].": 2679,
      "Ġcategory": 2680,
      "Ġê": 2681,
      "Ġobj": 2682,
      "etri": 2683,
      "Ġmapping": 2684,
      "Ġ&": 2685,
      "Ġpipeline": 2686,
      "like": 2687,
      "head": 2688,
      "redential": 2689,
      "Ġheaders": 2690,
      "tag": 2691,
      "ocab": 2692,
      ")\")": 2693,
      "true": 2694,
      "[:,": 2695,
      "Ġlike": 2696,
      "Ġcontrol": 2697,
      "ĠMax": 2698,
      "ose": 2699,
      "atio": 2700,
      "come": 2701,
      "gorithm": 2702,
      "Ġkeys": 2703,
      "pop": 2704,
      "Ġconvert": 2705,
      "Ġvector": 2706,
      "Ġind": 2707,
      "ĠPerform": 2708,
      ":\",": 2709,
      "Ġpad": 2710,
      "tc": 2711,
      "EY": 2712,
      "ĠNot": 2713,
      "Ġreading": 2714,
      "Interrupt": 2715,
      "[-": 2716,
      "bool": 2717,
      "SC": 2718,
      "Ġte": 2719,
      "ĠâĨĴ": 2720,
      "Ad": 2721,
      "argv": 2722,
      "sleep": 2723,
      "Ġbl": 2724,
      "Ã©": 2725,
      "Ġtypes": 2726,
      "lug": 2727,
      "difi": 2728,
      "Ġhints": 2729,
      "Ġaxis": 2730,
      "DATA": 2731,
      "stribution": 2732,
      "Ġtree": 2733,
      "vie": 2734,
      "counts": 2735,
      "ĊĠĠĠĠĠĠĠĠĠĠĠĠĠĠĠĠĊĠĠĠĠĠĠĠĠĠĠĠĠĠĠĠ": 2736,
      "settings": 2737,
      "rary": 2738,
      "Ġ[],": 2739,
      "Ġunit": 2740,
      "build": 2741,
      "parts": 2742,
      "SH": 2743,
      "Ġstor": 2744,
      "OError": 2745,
      "ĠSk": 2746,
      "replace": 2747,
      "Ġdifferent": 2748,
      "icle": 2749,
      "Ġparameter": 2750,
      "mory": 2751,
      "plotlib": 2752,
      "au": 2753,
      "Ġclo": 2754,
      "mit": 2755,
      "ĠApply": 2756,
      "TER": 2757,
      "Ġcharacter": 2758,
      "eg": 2759,
      "Ġloaded": 2760,
      "Ġbox": 2761,
      "Path": 2762,
      "Ġ['": 2763,
      "Ġmap": 2764,
      "the": 2765,
      "Ġservice": 2766,
      "ĠZ": 2767,
      "EL": 2768,
      "normal": 2769,
      "datetime": 2770,
      "ĠHand": 2771,
      "ĠIndex": 2772,
      "Process": 2773,
      "Ġenter": 2774,
      "PA": 2775,
      "do": 2776,
      "very": 2777,
      "function": 2778,
      "Ġprob": 2779,
      "ĠTensor": 2780,
      "Ġpub": 2781,
      "project": 2782,
      "ended": 2783,
      "Char": 2784,
      "Ġannot": 2785,
      "Return": 2786,
      "Ġlearning": 2787,
      "req": 2788,
      "Ġclarity": 2789,
      "gen": 2790,
      "Unexpected": 2791,
      "ĠPlot": 2792,
      "Ã³": 2793,
      "ĠDE": 2794,
      "her": 2795,
      "Ġpreprocess": 2796,
      "ui": 2797,
      "Ġdtype": 2798,
      "ĠCont": 2799,
      "Ġdraw": 2800,
      "boardInterrupt": 2801,
      "success": 2802,
      "fficient": 2803,
      "address": 2804,
      "ĠBuild": 2805,
      "auth": 2806,
      "sim": 2807,
      "limit": 2808,
      "tle": 2809,
      "ssue": 2810,
      "ould": 2811,
      "Note": 2812,
      "tric": 2813,
      "FF": 2814,
      "ulates": 2815,
      "su": 2816,
      "ww": 2817,
      "rows": 2818,
      "ickle": 2819,
      "emb": 2820,
      "ĠWhether": 2821,
      "blem": 2822,
      "Ġinstall": 2823,
      "Ġreport": 2824,
      "column": 2825,
      "Ġcontains": 2826,
      "Ġcond": 2827,
      "Ġindices": 2828,
      "ources": 2829,
      "tem": 2830,
      "pu": 2831,
      "comment": 2832,
      "Ġnn": 2833,
      "Ã§": 2834,
      "Ġsuccessful": 2835,
      "Ġselected": 2836,
      "mount": 2837,
      "åĩ": 2838,
      "Ġmetrics": 2839,
      "Id": 2840,
      "Ġcall": 2841,
      "distance": 2842,
      "lip": 2843,
      "UI": 2844,
      "Ġtests": 2845,
      "Ġsamples": 2846,
      "Ġhigh": 2847,
      "GET": 2848,
      "IG": 2849,
      "full": 2850,
      "lta": 2851,
      "Dec": 2852,
      "wit": 2853,
      "det": 2854,
      "Ġglobal": 2855,
      "redentials": 2856,
      "Ġsepar": 2857,
      "example": 2858,
      "Ġnegative": 2859,
      "(\"â": 2860,
      "only": 2861,
      "Ġconfigure": 2862,
      "Ġparsing": 2863,
      "execute": 2864,
      "ĠPrint": 2865,
      "Ġexit": 2866,
      "DO": 2867,
      "cesses": 2868,
      "Ġtk": 2869,
      "Ġwithin": 2870,
      "ĠSh": 2871,
      "onent": 2872,
      "heet": 2873,
      "city": 2874,
      "application": 2875,
      "Ġembed": 2876,
      "COL": 2877,
      "Ġest": 2878,
      "termine": 2879,
      "Ġnumer": 2880,
      "local": 2881,
      "gress": 2882,
      "pression": 2883,
      "ĠTraining": 2884,
      "è®": 2885,
      "istics": 2886,
      "'.": 2887,
      "orld": 2888,
      "Ġpay": 2889,
      "alance": 2890,
      "alysis": 2891,
      "Module": 2892,
      "emonstr": 2893,
      "Ġoff": 2894,
      "Ġí": 2895,
      "uplic": 2896,
      "ĠIN": 2897,
      "record": 2898,
      "irc": 2899,
      "rt": 2900,
      "ĠPlease": 2901,
      "feature": 2902,
      "idual": 2903,
      "mpt": 2904,
      "Ġmig": 2905,
      "roller": 2906,
      "Ġwould": 2907,
      "connection": 2908,
      "Ġsm": 2909,
      "Ġinfo": 2910,
      "ĠClass": 2911,
      "ĠAttributes": 2912,
      "Ġpur": 2913,
      "'),": 2914,
      "Ġsocket": 2915,
      "'],": 2916,
      "ire": 2917,
      "raph": 2918,
      "imp": 2919,
      "Ġprocessed": 2920,
      "ixel": 2921,
      "Ġthan": 2922,
      "=[\"": 2923,
      "pper": 2924,
      "Man": 2925,
      "ming": 2926,
      "cap": 2927,
      "sets": 2928,
      "ars": 2929,
      "ĠRemove": 2930,
      "ik": 2931,
      "ĠMan": 2932,
      "ium": 2933,
      "Ġwill": 2934,
      "Ġcomponents": 2935,
      "Ġ\"/": 2936,
      "hot": 2937,
      "ĠIOError": 2938,
      "question": 2939,
      "ilter": 2940,
      "æĹ": 2941,
      "ends": 2942,
      "Ġcalculate": 2943,
      "dius": 2944,
      "ĠKeyboardInterrupt": 2945,
      "(__": 2946,
      "Ġscreen": 2947,
      "ĠCurrent": 2948,
      "options": 2949,
      "except": 2950,
      "weights": 2951,
      "PO": 2952,
      "lag": 2953,
      "').": 2954,
      "AB": 2955,
      "ĠMo": 2956,
      "Valid": 2957,
      "uture": 2958,
      "ĠUses": 2959,
      "\"âĿĮ": 2960,
      "cel": 2961,
      "perty": 2962,
      "manager": 2963,
      "Ġremo": 2964,
      "reh": 2965,
      "Ġlimit": 2966,
      "Ġrepresenting": 2967,
      "Ġzero": 2968,
      "`.": 2969,
      "]],": 2970,
      "ĠRetri": 2971,
      "tree": 2972,
      "rack": 2973,
      "Ð´": 2974,
      "xy": 2975,
      "Ġ({": 2976,
      "Ġidx": 2977,
      "curs": 2978,
      "Ġimp": 2979,
      "ulti": 2980,
      "side": 2981,
      "adding": 2982,
      "Ġ\"--": 2983,
      "Train": 2984,
      "Ġcenter": 2985,
      "Create": 2986,
      "exp": 2987,
      "ched": 2988,
      "png": 2989,
      "ĠResponse": 2990,
      "Ġboard": 2991,
      "quire": 2992,
      "æį": 2993,
      "over": 2994,
      "prob": 2995,
      "ites": 2996,
      "ľħ": 2997,
      "Ġexisting": 2998,
      "ÑĮ": 2999,
      "Class": 3000,
      "ĠClean": 3001,
      "Ġqueue": 3002,
      "views": 3003,
      "ster": 3004,
      "Base": 3005,
      "IL": 3006,
      "learn": 3007,
      "Ġrece": 3008,
      "Ġparts": 3009,
      "andid": 3010,
      "Ġtag": 3011,
      "Gener": 3012,
      "Enter": 3013,
      "alth": 3014,
      "Ġcleaned": 3015,
      "ensive": 3016,
      "ived": 3017,
      "\"[": 3018,
      "body": 3019,
      "Number": 3020,
      "sk": 3021,
      "ĠOpen": 3022,
      "FIG": 3023,
      "Ġdefines": 3024,
      "paths": 3025,
      "erature": 3026,
      "ias": 3027,
      "setup": 3028,
      "cols": 3029,
      "olume": 3030,
      "DF": 3031,
      "We": 3032,
      "Ġsolution": 3033,
      "Ġ\"-": 3034,
      "Ġsimple": 3035,
      "velop": 3036,
      "Ġsimulation": 3037,
      "Ġstop": 3038,
      "Ġdetection": 3039,
      "uting": 3040,
      "arnings": 3041,
      "route": 3042,
      "space": 3043,
      "pk": 3044,
      "UR": 3045,
      "Ġunexpected": 3046,
      "Ġpractices": 3047,
      "ran": 3048,
      "Ġstandard": 3049,
      "ĠEducational": 3050,
      "sage": 3051,
      "å¼": 3052,
      "initial": 3053,
      "Ġcoordinates": 3054,
      "NN": 3055,
      "ync": 3056,
      "BASE": 3057,
      "ĠLe": 3058,
      "validate": 3059,
      "Ġnodes": 3060,
      "ison": 3061,
      "Ġdownload": 3062,
      "bust": 3063,
      "Ġcreation": 3064,
      "hip": 3065,
      "API": 3066,
      "Starting": 3067,
      "dient": 3068,
      "Ġve": 3069,
      "Ġsupports": 3070,
      "Ġdepend": 3071,
      "Ñĩ": 3072,
      "arr": 3073,
      "Ġavoid": 3074,
      "zeros": 3075,
      "quences": 3076,
      "card": 3077,
      "havi": 3078,
      "Ġrunning": 3079,
      "Ġatt": 3080,
      "tensor": 3081,
      "Ġcomplete": 3082,
      "ĠQu": 3083,
      "just": 3084,
      "(-": 3085,
      "Ġpop": 3086,
      "ĠHttpRequest": 3087,
      "Ġsuch": 3088,
      "Ġsplit": 3089,
      "medi": 3090,
      "ĠKeyError": 3091,
      "quare": 3092,
      "cv": 3093,
      "abs": 3094,
      "âĢĶ": 3095,
      "istration": 3096,
      "pg": 3097,
      "icy": 3098,
      "Equal": 3099,
      "Ġconn": 3100,
      "lack": 3101,
      "staticmethod": 3102,
      "ynamic": 3103,
      "SET": 3104,
      "register": 3105,
      "used": 3106,
      "Ġoperation": 3107,
      "Ġang": 3108,
      "ĠDec": 3109,
      "Ãº": 3110,
      "intain": 3111,
      "web": 3112,
      "na": 3113,
      "store": 3114,
      "ek": 3115,
      "Ġlong": 3116,
      "ĠIP": 3117,
      "Ġdriver": 3118,
      "other": 3119,
      "actions": 3120,
      "Ġtransform": 3121,
      "Ġclasses": 3122,
      "can": 3123,
      "HE": 3124,
      "Ġprediction": 3125,
      "ilities": 3126,
      "Driver": 3127,
      "andas": 3128,
      "ending": 3129,
      "location": 3130,
      "ush": 3131,
      "gin": 3132,
      "utation": 3133,
      "ower": 3134,
      "Ġperson": 3135,
      "ier": 3136,
      "pture": 3137,
      "Ġcluster": 3138,
      "Ġabs": 3139,
      "rowser": 3140,
      "Ġselect": 3141,
      "category": 3142,
      "pd": 3143,
      "Ġthem": 3144,
      "Ġsignal": 3145,
      "steps": 3146,
      "Main": 3147,
      "VER": 3148,
      "cc": 3149,
      "Ġincluding": 3150,
      "ĠRed": 3151,
      "Ġstd": 3152,
      "cell": 3153,
      "Ġreverse": 3154,
      "æī": 3155,
      "Ġdest": 3156,
      "center": 3157,
      "pub": 3158,
      "PU": 3159,
      "exception": 3160,
      "ffect": 3161,
      "ĠCallable": 3162,
      "Ġrobust": 3163,
      "Ġbook": 3164,
      "ading": 3165,
      "ĠTh": 3166,
      "tom": 3167,
      "Ġaccuracy": 3168,
      "draw": 3169,
      "entry": 3170,
      "seed": 3171,
      "ĠÐ¿": 3172,
      "Ġ--------": 3173,
      "Ġmodules": 3174,
      "edge": 3175,
      "Ġinitialize": 3176,
      "ĠDemonstr": 3177,
      "Ġund": 3178,
      "ropo": 3179,
      "Ġkernel": 3180,
      "ĠInitial": 3181,
      "Ġwrit": 3182,
      "click": 3183,
      "Ġchild": 3184,
      "Ġvis": 3185,
      "Ġupdated": 3186,
      "Ġperformance": 3187,
      "timestamp": 3188,
      "core": 3189,
      "ÐµÐ½": 3190,
      "cret": 3191,
      "arison": 3192,
      "pare": 3193,
      "Ġspace": 3194,
      "lags": 3195,
      "INFO": 3196,
      "factor": 3197,
      "urface": 3198,
      "Ġcls": 3199,
      "KEY": 3200,
      "Ġsens": 3201,
      "istic": 3202,
      "scores": 3203,
      "Expected": 3204,
      "EX": 3205,
      "havior": 3206,
      "Ġlocation": 3207,
      "handle": 3208,
      "OL": 3209,
      "Ġsymbol": 3210,
      "(\"-": 3211,
      "ario": 3212,
      "éĢ": 3213,
      "Ġbody": 3214,
      "To": 3215,
      "EST": 3216,
      "Ġetc": 3217,
      "known": 3218,
      ")):": 3219,
      "uff": 3220,
      "Ġpatterns": 3221,
      "cls": 3222,
      "è¾": 3223,
      "Ġremove": 3224,
      "ropout": 3225,
      "hema": 3226,
      "users": 3227,
      "Ġprofile": 3228,
      "ogle": 3229,
      "sequence": 3230,
      "Ġendpoint": 3231,
      "Get": 3232,
      "light": 3233,
      "Ġhash": 3234,
      "SQL": 3235,
      "ĠMock": 3236,
      "Ġç": 3237,
      "ĠConstants": 3238,
      "ÑģÑĤ": 3239,
      "Ġpixel": 3240,
      "ĠSystem": 3241,
      "prefix": 3242,
      "abled": 3243,
      "poses": 3244,
      "Ġdirectly": 3245,
      "OS": 3246,
      "Ġmath": 3247,
      "Ġhandles": 3248,
      "Ġcommon": 3249,
      "åĽ": 3250,
      "CharField": 3251,
      "Ġmatplotlib": 3252,
      "Ġartic": 3253,
      "ĠTrans": 3254,
      "usr": 3255,
      "optim": 3256,
      "Ġremain": 3257,
      "ĠMaximum": 3258,
      "omb": 3259,
      "err": 3260,
      "job": 3261,
      "conv": 3262,
      "Ġcombin": 3263,
      "rehensive": 3264,
      "\"},": 3265,
      "Ġleast": 3266,
      "Ġprefix": 3267,
      "Ġevaluation": 3268,
      "iddle": 3269,
      "numbers": 3270,
      "ze": 3271,
      "threshold": 3272,
      "nodes": 3273,
      "Ġsort": 3274,
      "vious": 3275,
      "ulated": 3276,
      "pattern": 3277,
      "({\"": 3278,
      "Ġcard": 3279,
      "Ġmodular": 3280,
      "cost": 3281,
      "call": 3282,
      "åħ¥": 3283,
      "Ġfrequency": 3284,
      "ste": 3285,
      "alyz": 3286,
      "dec": 3287,
      "Ġrule": 3288,
      "Ġface": 3289,
      "aut": 3290,
      "home": 3291,
      "Ġge": 3292,
      "Ġauthentication": 3293,
      "header": 3294,
      "negative": 3295,
      "gy": 3296,
      "ather": 3297,
      "Ġdocumentation": 3298,
      "Ġfinally": 3299,
      "(\"ðŁ": 3300,
      "Optional": 3301,
      "Ġfeed": 3302,
      "Ġ---------------------------": 3303,
      "errors": 3304,
      "Ġformatted": 3305,
      "ĠValidation": 3306,
      "âĢĶâĢĶ": 3307,
      "Ġmsg": 3308,
      "Ġautom": 3309,
      "Client": 3310,
      "Ġfail": 3311,
      "Please": 3312,
      "Dep": 3313,
      "Ġpe": 3314,
      "cri": 3315,
      "Ġamount": 3316,
      "ift": 3317,
      "Ġdown": 3318,
      "bytes": 3319,
      "respon": 3320,
      "ĠReg": 3321,
      "ulator": 3322,
      "types": 3323,
      "Ġsql": 3324,
      "Ġplay": 3325,
      "ĠNormal": 3326,
      "screen": 3327,
      "Logger": 3328,
      "ties": 3329,
      "æĸĩ": 3330,
      "presents": 3331,
      "second": 3332,
      "contain": 3333,
      "gan": 3334,
      "Ġdemonstration": 3335,
      "ĠVer": 3336,
      "oci": 3337,
      "umed": 3338,
      "ssible": 3339,
      "cases": 3340,
      "history": 3341,
      "ev": 3342,
      "Ġacross": 3343,
      "leg": 3344,
      "Ġsha": 3345,
      "handler": 3346,
      "Ġmake": 3347,
      "accuracy": 3348,
      "velopment": 3349,
      "MM": 3350,
      "Ġaccount": 3351,
      "åĮ": 3352,
      "Ġexc": 3353,
      "rough": 3354,
      "acc": 3355,
      "Ġchoice": 3356,
      "att": 3357,
      "MS": 3358,
      "figs": 3359,
      "Ġ{'": 3360,
      "Py": 3361,
      "vals": 3362,
      "Ġage": 3363,
      "stats": 3364,
      "created": 3365,
      "assertEqual": 3366,
      "Ġtool": 3367,
      "vas": 3368,
      "uid": 3369,
      "ignment": 3370,
      "periment": 3371,
      "best": 3372,
      "Ġaverage": 3373,
      "TY": 3374,
      "asure": 3375,
      "ags": 3376,
      "ĠRetrieve": 3377,
      "Ġallows": 3378,
      "tk": 3379,
      "Ġmaintain": 3380,
      "oper": 3381,
      "(\"=\"": 3382,
      "Ġstack": 3383,
      "Manager": 3384,
      "Ġfilepath": 3385,
      "serial": 3386,
      "Ġcopy": 3387,
      "Ġwithout": 3388,
      "Ġalgorithm": 3389,
      "Ġstore": 3390,
      "Ġauthor": 3391,
      "æŀ": 3392,
      "stop": 3393,
      "ĠUsing": 3394,
      "unic": 3395,
      "Ġcommands": 3396,
      "Ġrot": 3397,
      "`,": 3398,
      "Ġscal": 3399,
      "Ġ\").": 3400,
      "Ġdelete": 3401,
      "ĠFormat": 3402,
      "digit": 3403,
      "Ġsteps": 3404,
      "Ð¾Ð²": 3405,
      "Ġrecords": 3406,
      "Ġcost": 3407,
      "remove": 3408,
      "Result": 3409,
      "ĠRender": 3410,
      "Ġscale": 3411,
      "Ġfunctionality": 3412,
      "All": 3413,
      "Ġmonth": 3414,
      "Ġdigits": 3415,
      "Pre": 3416,
      "Ġlists": 3417,
      "ages": 3418,
      "ĠOn": 3419,
      "Ġissue": 3420,
      "DEFAULT": 3421,
      "Ġscores": 3422,
      "alle": 3423,
      "author": 3424,
      "AC": 3425,
      ")\",": 3426,
      "]])": 3427,
      "ffix": 3428,
      "Ġseed": 3429,
      "Ġconsist": 3430,
      "pose": 3431,
      "Ġlet": 3432,
      "style": 3433,
      "æł": 3434,
      "variable": 3435,
      "ä»¶": 3436,
      "python": 3437,
      "ĠIDs": 3438,
      "ĠEvalu": 3439,
      "Ġensures": 3440,
      "#!": 3441,
      "avig": 3442,
      "Ġretrie": 3443,
      "ords": 3444,
      "åŃĹ": 3445,
      "Ġregister": 3446,
      "Ġ%(": 3447,
      "#!/": 3448,
      "transform": 3449,
      "pay": 3450,
      "ĠOS": 3451,
      "Ġclose": 3452,
      "vices": 3453,
      "UP": 3454,
      "Ġdomain": 3455,
      "Ġcateg": 3456,
      "Ġactive": 3457,
      "folder": 3458,
      "ĠSimulate": 3459,
      "specific": 3460,
      "lenium": 3461,
      "Ġattemp": 3462,
      "ÑĢÐ°": 3463,
      "oding": 3464,
      "Ġmock": 3465,
      "Ġsummary": 3466,
      "hash": 3467,
      "Ġpandas": 3468,
      "Ġ===\")": 3469,
      "seq": 3470,
      "__)": 3471,
      "Widget": 3472,
      "izing": 3473,
      "Handler": 3474,
      "æį®": 3475,
      "weet": 3476,
      "UTP": 3477,
      "/\",": 3478,
      "Ġstudent": 3479,
      "imation": 3480,
      "}':": 3481,
      "Comp": 3482,
      "lement": 3483,
      "ech": 3484,
      "ĠĠĠĠĠĠĠĠĠĠĠĠĠĠĠĠ": 3485,
      "lap": 3486,
      "lambda": 3487,
      "Ġhasattr": 3488,
      "String": 3489,
      "UTPUT": 3490,
      "stract": 3491,
      "Ġhandler": 3492,
      "Ġwra": 3493,
      "Ġaxes": 3494,
      "ĠOr": 3495,
      "\".": 3496,
      "ĠBo": 3497,
      "cut": 3498,
      "strings": 3499,
      "Ġgeneration": 3500,
      "Ġstream": 3501,
      "Ġoptimizer": 3502,
      "########": 3503,
      "Ġdefined": 3504,
      "ĠSQL": 3505,
      "Ġcompat": 3506,
      "ason": 3507,
      "endencies": 3508,
      "sort": 3509,
      "Ġpurposes": 3510,
      "ĠComple": 3511,
      "required": 3512,
      "Ġbehavior": 3513,
      "lash": 3514,
      "olve": 3515,
      "service": 3516,
      "ĠInter": 3517,
      "stack": 3518,
      "predict": 3519,
      "keep": 3520,
      "lice": 3521,
      "().__": 3522,
      "loader": 3523,
      "Ġdetails": 3524,
      "Ġop": 3525,
      "select": 3526,
      "ìŀ": 3527,
      "tex": 3528,
      "Ġsets": 3529,
      "Ġarr": 3530,
      "SER": 3531,
      "Ġclassification": 3532,
      "Ġhere": 3533,
      "ĠGame": 3534,
      "Le": 3535,
      "ral": 3536,
      "Item": 3537,
      "Ġfactor": 3538,
      "Ġ\"\",": 3539,
      "è¡Į": 3540,
      "ilt": 3541,
      "EP": 3542,
      "ä¿": 3543,
      "åıĸ": 3544,
      "src": 3545,
      "Ġdistribution": 3546,
      "Ġdirection": 3547,
      "ĠURLs": 3548,
      "Ġ\\": 3549,
      "final": 3550,
      "Ġevaluate": 3551,
      "Ġlambda": 3552,
      "ĠString": 3553,
      "GB": 3554,
      "Hel": 3555,
      "ĠFirst": 3556,
      "ongo": 3557,
      "Ġvisualization": 3558,
      "ds": 3559,
      "éĩ": 3560,
      "Add": 3561,
      "ĠExec": 3562,
      "========================": 3563,
      "--------------------------------": 3564,
      "Ġinstalled": 3565,
      "stall": 3566,
      "aging": 3567,
      "Ġcomment": 3568,
      "Success": 3569,
      "ĠHandles": 3570,
      "ipping": 3571,
      "upper": 3572,
      "formed": 3573,
      "Flow": 3574,
      "¤º": 3575,
      "comple": 3576,
      "ux": 3577,
      "Ġpadding": 3578,
      "isode": 3579,
      "YY": 3580,
      "Ð¿": 3581,
      "urse": 3582,
      "child": 3583,
      "font": 3584,
      "Message": 3585,
      "dump": 3586,
      "serv": 3587,
      "Ġretrieve": 3588,
      "contrib": 3589,
      "Net": 3590,
      "Ġactivation": 3591,
      "å½": 3592,
      "ĠDatabase": 3593,
      "Ġstructured": 3594,
      "ĠPermission": 3595,
      "So": 3596,
      "Ġhead": 3597,
      "riginal": 3598,
      "Ġapply": 3599,
      "Ġarch": 3600,
      "ĠCount": 3601,
      "ĠFunctions": 3602,
      "Ġmatching": 3603,
      "bound": 3604,
      "Ġtokens": 3605,
      "åľ": 3606,
      "Ġgen": 3607,
      "Th": 3608,
      "starts": 3609,
      "Ġlar": 3610,
      "ĠWSGI": 3611,
      "Ġbetter": 3612,
      "JSON": 3613,
      "ORT": 3614,
      "Ð·": 3615,
      "Ġreference": 3616,
      "Ġ----": 3617,
      "icense": 3618,
      "Ġcounts": 3619,
      "AP": 3620,
      "Ġthen": 3621,
      "****": 3622,
      "à¸": 3623,
      "ula": 3624,
      "lan": 3625,
      "Ġlibrary": 3626,
      "Ġlayers": 3627,
      "section": 3628,
      "Ġpairs": 3629,
      "agement": 3630,
      "Ġpickle": 3631,
      "è¡¨": 3632,
      "mplements": 3633,
      "Ġpas": 3634,
      "ĠGo": 3635,
      "Ġdue": 3636,
      "Ġannotations": 3637,
      "Ġpositions": 3638,
      "ases": 3639,
      "Ġday": 3640,
      "cs": 3641,
      "counter": 3642,
      "ĠĠĠĠĠ": 3643,
      "Ġinsert": 3644,
      "choice": 3645,
      "Ġmay": 3646,
      "ĠEach": 3647,
      "basic": 3648,
      "afely": 3649,
      "QU": 3650,
      "BU": 3651,
      "hand": 3652,
      "Ġevents": 3653,
      "ĠMin": 3654,
      "Ġfit": 3655,
      "vision": 3656,
      "By": 3657,
      "je": 3658,
      "ls": 3659,
      "Ġgre": 3660,
      "dest": 3661,
      "Ġidentifier": 3662,
      "()`": 3663,
      "Ãºm": 3664,
      "ior": 3665,
      "atches": 3666,
      "until": 3667,
      "loaded": 3668,
      "Ġ'.": 3669,
      "IP": 3670,
      "Ġparsed": 3671,
      "Ġ\",": 3672,
      "site": 3673,
      "ram": 3674,
      "property": 3675,
      "Ġindic": 3676,
      "ĠExecute": 3677,
      "Mo": 3678,
      "extract": 3679,
      "Ġ--": 3680,
      "database": 3681,
      "Dependencies": 3682,
      "training": 3683,
      "Ġtasks": 3684,
      "ĠExpected": 3685,
      "thread": 3686,
      "Ġwait": 3687,
      "termin": 3688,
      "embed": 3689,
      "tour": 3690,
      "ĠĠĠĠĠĠĠ": 3691,
      "duc": 3692,
      "cogn": 3693,
      "teger": 3694,
      "Ġmanager": 3695,
      "æķ°æį®": 3696,
      "report": 3697,
      "Ġbackground": 3698,
      "sens": 3699,
      "Ġref": 3700,
      "Ġauto": 3701,
      "Ã§Ã£o": 3702,
      "amo": 3703,
      "Ġhidden": 3704,
      "ression": 3705,
      "'])": 3706,
      "conf": 3707,
      "ategy": 3708,
      "Ġjsonify": 3709,
      "qua": 3710,
      "summary": 3711,
      "repr": 3712,
      "-%": 3713,
      "ÃŃ": 3714,
      "NT": 3715,
      "xml": 3716,
      "Ġresource": 3717,
      "ROR": 3718,
      "Ġcredentials": 3719,
      "Ġthrough": 3720,
      "actory": 3721,
      "xity": 3722,
      "quires": 3723,
      "tml": 3724,
      "gex": 3725,
      "Window": 3726,
      "profile": 3727,
      "Ġaudio": 3728,
      "Ġhist": 3729,
      "ĠSub": 3730,
      "ros": 3731,
      "cursor": 3732,
      "parameters": 3733,
      "orical": 3734,
      "Ġawait": 3735,
      "drop": 3736,
      "ĠFetch": 3737,
      "Ġsegment": 3738,
      "Ġmatches": 3739,
      "has": 3740,
      "ĠFinal": 3741,
      "safe": 3742,
      "Ġagain": 3743,
      "tick": 3744,
      "Ġpredict": 3745,
      "SA": 3746,
      "osition": 3747,
      "Ġcorrespon": 3748,
      "headers": 3749,
      "tuple": 3750,
      "original": 3751,
      "ĠFilter": 3752,
      "Training": 3753,
      "Ġsimil": 3754,
      "Admin": 3755,
      "aces": 3756,
      "ixed": 3757,
      "mak": 3758,
      "ĠText": 3759,
      "priate": 3760,
      "Ġattributes": 3761,
      "ĠPoint": 3762,
      "Ġsafe": 3763,
      "Ġlat": 3764,
      "Ġforward": 3765,
      "si": 3766,
      "Ġneighb": 3767,
      "ĠSkip": 3768,
      "processed": 3769,
      "State": 3770,
      "alpha": 3771,
      "ĠSupport": 3772,
      "æĺ": 3773,
      "ĠBe": 3774,
      "patterns": 3775,
      "Ġunder": 3776,
      "trained": 3777,
      "Ġprocesses": 3778,
      "Ġdigit": 3779,
      "fy": 3780,
      "Ġcsv": 3781,
      "Ġstatistics": 3782,
      "month": 3783,
      "Ġmaximum": 3784,
      "zz": 3785,
      "Parser": 3786,
      "cmd": 3787,
      "chemy": 3788,
      "posit": 3789,
      "Ġselection": 3790,
      "tool": 3791,
      "']:": 3792,
      "track": 3793,
      "ged": 3794,
      "hel": 3795,
      "Ġentries": 3796,
      "ìĿ´": 3797,
      "firm": 3798,
      "sql": 3799,
      "amount": 3800,
      "umes": 3801,
      "custom": 3802,
      "less": 3803,
      "latten": 3804,
      "Ġstyle": 3805,
      "correct": 3806,
      "video": 3807,
      "PRO": 3808,
      "dev": 3809,
      "Check": 3810,
      "Ġè": 3811,
      "Ġ=================================================": 3812,
      "fe": 3813,
      "ORD": 3814,
      "]}": 3815,
      "Ġconv": 3816,
      "Ġinv": 3817,
      "Ġdimensions": 3818,
      "ished": 3819,
      "dete": 3820,
      "elect": 3821,
      "CRE": 3822,
      "ĠWebDriver": 3823,
      "cache": 3824,
      "hance": 3825,
      "Al": 3826,
      "Ġspa": 3827,
      "offset": 3828,
      "stream": 3829,
      "ylabel": 3830,
      "ĠÐ²": 3831,
      "Ġregion": 3832,
      "mote": 3833,
      "Ġsklearn": 3834,
      "Ġ\"\\": 3835,
      "Ġwidget": 3836,
      "Ġappropriate": 3837,
      "ratio": 3838,
      "ç¤º": 3839,
      "fg": 3840,
      "Ġgenerated": 3841,
      "(*": 3842,
      "Ġdebug": 3843,
      "Īĺ": 3844,
      "Ġvarious": 3845,
      "ĠApplication": 3846,
      "CONFIG": 3847,
      "Ġlayout": 3848,
      "VAL": 3849,
      "Ġside": 3850,
      "clus": 3851,
      "urtle": 3852,
      "struction": 3853,
      "ensity": 3854,
      "Ġans": 3855,
      "ited": 3856,
      "ube": 3857,
      "Ġduplic": 3858,
      "Ġclassifier": 3859,
      "astype": 3860,
      "environ": 3861,
      "()}\")": 3862,
      "vector": 3863,
      "LECT": 3864,
      "Ġperiod": 3865,
      "fid": 3866,
      "ats": 3867,
      "locity": 3868,
      "Ġsa": 3869,
      "Ġtimes": 3870,
      "ĠRandom": 3871,
      "Ġhtml": 3872,
      "COLOR": 3873,
      "Ġbasic": 3874,
      "Ġ-----------------------------": 3875,
      "ĠTarget": 3876,
      "metrics": 3877,
      "startswith": 3878,
      "At": 3879,
      "ince": 3880,
      "qrt": 3881,
      "Ġcreating": 3882,
      "Ġassoci": 3883,
      ")),": 3884,
      "sorted": 3885,
      "ĊĠĠ": 3886,
      "channels": 3887,
      "loyee": 3888,
      "SO": 3889,
      "Ġclear": 3890,
      "norm": 3891,
      "Ġattribute": 3892,
      "ĠUt": 3893,
      "Ġdepth": 3894,
      "Program": 3895,
      "Ġden": 3896,
      "predictions": 3897,
      "Ġfontsize": 3898,
      "activ": 3899,
      "Ġfollows": 3900,
      "Ġlower": 3901,
      "Ġextension": 3902,
      ":\\": 3903,
      "ä¸º": 3904,
      "way": 3905,
      "})\")": 3906,
      "Ġexpression": 3907,
      "Qu": 3908,
      "Decode": 3909,
      "loud": 3910,
      "ä¸ª": 3911,
      "CES": 3912,
      "unique": 3913,
      "ĠTotal": 3914,
      "Value": 3915,
      "opt": 3916,
      "ĠModule": 3917,
      "Ġpred": 3918,
      "common": 3919,
      "tx": 3920,
      "inputs": 3921,
      "lates": 3922,
      "rency": 3923,
      "HTTP": 3924,
      "sha": 3925,
      "For": 3926,
      "Ġmodifi": 3927,
      "insert": 3928,
      "Ġcar": 3929,
      "Ġhistory": 3930,
      "Per": 3931,
      "Ġquant": 3932,
      "Ġhttp": 3933,
      "lers": 3934,
      "mber": 3935,
      "Ġhome": 3936,
      "ND": 3937,
      "related": 3938,
      "ĠGET": 3939,
      "ada": 3940,
      "Ġdoesn": 3941,
      "VI": 3942,
      "Ġstock": 3943,
      "speed": 3944,
      "Ġmemory": 3945,
      "Ġmerge": 3946,
      "ĠHe": 3947,
      "ritical": 3948,
      "avg": 3949,
      "Ġpayload": 3950,
      "è´": 3951,
      "LU": 3952,
      "fetch": 3953,
      "Ġpathlib": 3954,
      "Ġum": 3955,
      "Ġproblem": 3956,
      "uman": 3957,
      "xlabel": 3958,
      "\"}),": 3959,
      "Ġpossible": 3960,
      "Ġzip": 3961,
      "Ġoutputs": 3962,
      "hes": 3963,
      "Ġoffset": 3964,
      "area": 3965,
      "Ġenv": 3966,
      "Ġcollection": 3967,
      "}'\")": 3968,
      "domain": 3969,
      "nal": 3970,
      "Ġstarting": 3971,
      "hell": 3972,
      "zone": 3973,
      "delta": 3974,
      "Ġsubject": 3975,
      "ida": 3976,
      "Ġthere": 3977,
      "cope": 3978,
      "ggreg": 3979,
      "Ġagent": 3980,
      "Ġupload": 3981,
      "ĠĊĠĠĠĠĠĠĠĠĠĠĠ": 3982,
      "sm": 3983,
      "Ġpresent": 3984,
      "Ġround": 3985,
      "chestr": 3986,
      "resh": 3987,
      "Ġdist": 3988,
      "uming": 3989,
      "æ³": 3990,
      "ĠDraw": 3991,
      "Ġros": 3992,
      "account": 3993,
      "Ġexternal": 3994,
      "igned": 3995,
      "oken": 3996,
      "cket": 3997,
      "Box": 3998,
      "Ġpermission": 3999,
      "ĠRepresents": 4000,
      "Ġ\"\")": 4001,
      "MAX": 4002,
      "timeout": 4003,
      "Ġcamera": 4004,
      "Ġconver": 4005,
      "lim": 4006,
      "bet": 4007,
      "Ġprime": 4008,
      "Ġ],": 4009,
      "ĠÑģ": 4010,
      "ENT": 4011,
      "Ġsched": 4012,
      "olean": 4013,
      "bugging": 4014,
      "DecodeError": 4015,
      "ĠDis": 4016,
      "Ġargparse": 4017,
      "æĪĲ": 4018,
      "dist": 4019,
      "ìĹ": 4020,
      "Ġarea": 4021,
      "gb": 4022,
      "exceptions": 4023,
      "NO": 4024,
      "Ġ\")": 4025,
      "Ġblank": 4026,
      "Ġruns": 4027,
      "VE": 4028,
      "ĠDetermine": 4029,
      "Ġreplace": 4030,
      "Ġgue": 4031,
      "Des": 4032,
      "pool": 4033,
      "ons": 4034,
      "cast": 4035,
      "Ġlook": 4036,
      "generate": 4037,
      "Ġdevelopment": 4038,
      "Ġprevious": 4039,
      "Ġemp": 4040,
      "ERROR": 4041,
      "ĠArray": 4042,
      "GO": 4043,
      "Ġcache": 4044,
      "ric": 4045,
      "Ġlanguage": 4046,
      "============================": 4047,
      "non": 4048,
      "Ġanalyze": 4049,
      "Ġyield": 4050,
      "Ġshort": 4051,
      "network": 4052,
      "Ġsig": 4053,
      "ampling": 4054,
      "Pa": 4055,
      "Database": 4056,
      "å¹": 4057,
      "}/{": 4058,
      "Run": 4059,
      "*-": 4060,
      "cision": 4061,
      "ĠSearch": 4062,
      "inear": 4063,
      "rot": 4064,
      "Ġwin": 4065,
      "menu": 4066,
      "uit": 4067,
      "dividual": 4068,
      "Ġcomprehensive": 4069,
      "Ġcy": 4070,
      "symbol": 4071,
      "Ġapi": 4072,
      "éĶ": 4073,
      "PIO": 4074,
      "Ġmonitor": 4075,
      "uter": 4076,
      "Ġtuples": 4077,
      "SION": 4078,
      "Ġclick": 4079,
      "jpg": 4080,
      "mod": 4081,
      "Ġsequences": 4082,
      "tight": 4083,
      "andidate": 4084,
      "Ġspeed": 4085,
      "IGHT": 4086,
      "Ġallowed": 4087,
      "ĠFailed": 4088,
      "sca": 4089,
      "ĠWrite": 4090,
      "é¡": 4091,
      "olute": 4092,
      "utable": 4093,
      "getLogger": 4094,
      "Ġmenu": 4095,
      "ĠMy": 4096,
      "Ġpara": 4097,
      "otion": 4098,
      "ValueError": 4099,
      "Ġap": 4100,
      "ĠnÃºm": 4101,
      "ç¬": 4102,
      "¨ĭ": 4103,
      "Ġstats": 4104,
      "eries": 4105,
      "Ġangle": 4106,
      "Ġ-*-": 4107,
      "Ġrospy": 4108,
      "çĲ": 4109,
      "dify": 4110,
      "Successfully": 4111,
      "Ġsaving": 4112,
      "fail": 4113,
      "Ġhour": 4114,
      "decode": 4115,
      "Ġinitialization": 4116,
      "park": 4117,
      "ĠProper": 4118,
      "iful": 4119,
      "ives": 4120,
      "ationship": 4121,
      "Label": 4122,
      "autiful": 4123,
      "æµ": 4124,
      "'].": 4125,
      "ometry": 4126,
      "Ġsensor": 4127,
      "Ġcompatibility": 4128,
      "ctionaries": 4129,
      "ĠVisual": 4130,
      "Ã³n": 4131,
      "ached": 4132,
      "ĠIter": 4133,
      "ĠAct": 4134,
      "ä¾": 4135,
      "Ġexception": 4136,
      "\"ðŁ": 4137,
      "days": 4138,
      "cure": 4139,
      "}{": 4140,
      "elements": 4141,
      "ĠAdditional": 4142,
      "è¾ĵ": 4143,
      "Element": 4144,
      "fill": 4145,
      "unit": 4146,
      "Ġmedi": 4147,
      "]),": 4148,
      "irect": 4149,
      "coder": 4150,
      "ĠRequest": 4151,
      "ssian": 4152,
      "oriz": 4153,
      "parser": 4154,
      "system": 4155,
      "ĠDirectory": 4156,
      "sole": 4157,
      "Ġduration": 4158,
      "OP": 4159,
      "'):": 4160,
      "ìĬ": 4161,
      "fin": 4162,
      "Ġcross": 4163,
      "pad": 4164,
      "clear": 4165,
      "Ġfiltering": 4166,
      "DEL": 4167,
      "Ġvs": 4168,
      "Ġvocab": 4169,
      "Connection": 4170,
      "Ġcity": 4171,
      "Ġsrc": 4172,
      "ĠTensorFlow": 4173,
      "Ð±": 4174,
      "using": 4175,
      "Ġnoise": 4176,
      "ĠAc": 4177,
      "ping": 4178,
      "TIME": 4179,
      "ë¥": 4180,
      "win": 4181,
      "ĠĊĠĠĠĠĠĠĠ": 4182,
      "zip": 4183,
      "Ġnumeric": 4184,
      "ĠPOST": 4185,
      "ĠOnly": 4186,
      "iting": 4187,
      "integ": 4188,
      "Ġdesigned": 4189,
      "Ġdebugging": 4190,
      "Ġfuture": 4191,
      "otential": 4192,
      "Total": 4193,
      "ĠSetup": 4194,
      "rupted": 4195,
      "available": 4196,
      "ĠPa": 4197,
      "Ġsubprocess": 4198,
      "Ġquestion": 4199,
      "Ġarticle": 4200,
      "figure": 4201,
      "åĪĹ": 4202,
      "æİ": 4203,
      "ä½¿": 4204,
      "Ġdivis": 4205,
      "Dataset": 4206,
      "yper": 4207,
      "ĠMA": 4208,
      "çĲĨ": 4209,
      "diff": 4210,
      "åį": 4211,
      "arm": 4212,
      "hour": 4213,
      "Serial": 4214,
      "Update": 4215,
      "ĠAttribute": 4216,
      "Ġcomparison": 4217,
      "Ġtags": 4218,
      "cer": 4219,
      "ĠValidationError": 4220,
      "ĠXML": 4221,
      "Ġdefin": 4222,
      "Ġrest": 4223,
      "(\"--": 4224,
      "ircle": 4225,
      "Ġcallback": 4226,
      "Tree": 4227,
      "Ġteam": 4228,
      "¸ı": 4229,
      "wn": 4230,
      "ï¸ı": 4231,
      ").__": 4232,
      "Info": 4233,
      "ention": 4234,
      "Ġtracking": 4235,
      "ĠSort": 4236,
      "orn": 4237,
      "oices": 4238,
      "}_": 4239,
      "Ġrank": 4240,
      "Could": 4241,
      "ROM": 4242,
      "Ġgenerator": 4243,
      "Ġdatasets": 4244,
      "Ġseries": 4245,
      "ĠNew": 4246,
      "figsize": 4247,
      "Index": 4248,
      "dings": 4249,
      "ants": 4250,
      "Ġsentence": 4251,
      "\"]:": 4252,
      "ä¸Ń": 4253,
      "Lay": 4254,
      "ummy": 4255,
      "ĠOSError": 4256,
      "Ac": 4257,
      "Ġimplements": 4258,
      "ĠColumn": 4259,
      "extend": 4260,
      "ëĭ¤": 4261,
      ")\"": 4262,
      "Ġgetattr": 4263,
      "cing": 4264,
      "document": 4265,
      "ĊĠĠĠĠĠĠĠĠĠĠĠĠĠĠĠĠĠĠĠĠĠĠĠĠĠĠĠĠĠĠĠ": 4266,
      "Qt": 4267,
      "optional": 4268,
      "Ġut": 4269,
      "GR": 4270,
      "fidence": 4271,
      "Ġcorresponding": 4272,
      "Ġbeen": 4273,
      "Ġarrays": 4274,
      "ĠPost": 4275,
      "Ġwarnings": 4276,
      "ead": 4277,
      "Ġschema": 4278,
      "(\"-\"": 4279,
      "reset": 4280,
      "ÐµÑĤ": 4281,
      "Ġimpro": 4282,
      "Ġinitialized": 4283,
      "Ġpair": 4284,
      "Ġ=============================================================================": 4285,
      "Sub": 4286,
      "Ġdictionaries": 4287,
      "DU": 4288,
      "Ġdelay": 4289,
      "ront": 4290,
      "å¾": 4291,
      "raction": 4292,
      "éĹ": 4293,
      "ĠLabel": 4294,
      "ropy": 4295,
      "Ġtr": 4296,
      "zero": 4297,
      "Ġchunk": 4298,
      "ĠIndexError": 4299,
      "itespace": 4300,
      "Ġfunc": 4301,
      "Ġforms": 4302,
      "ĠPermissionError": 4303,
      "atic": 4304,
      "Ġprim": 4305,
      "HER": 4306,
      "hidden": 4307,
      "abilities": 4308,
      "Ð¹": 4309,
      "inf": 4310,
      "Ġkeyword": 4311,
      "Unknown": 4312,
      "make": 4313,
      "ĠĠĠĠĠĠ": 4314,
      "acter": 4315,
      "ven": 4316,
      "Ġinstances": 4317,
      "ĠLanguage": 4318,
      "usters": 4319,
      "depth": 4320,
      "uffle": 4321,
      "ä¸Ģ": 4322,
      "Ġequal": 4323,
      "ä½¿çĶ¨": 4324,
      "licit": 4325,
      "Ġali": 4326,
      "Ġgray": 4327,
      "control": 4328,
      "ĠâĢ": 4329,
      "Ġconnected": 4330,
      "Ġexact": 4331,
      "duce": 4332,
      "room": 4333,
      "Sh": 4334,
      "IST": 4335,
      ":%": 4336,
      "Ġmovie": 4337,
      "Ġconsider": 4338,
      "åĩº": 4339,
      "DA": 4340,
      "Ġremaining": 4341,
      "press": 4342,
      "Ġepochs": 4343,
      "Ġ_,": 4344,
      "imate": 4345,
      "oder": 4346,
      "pus": 4347,
      "coordin": 4348,
      "Ġbar": 4349,
      "ĠCON": 4350,
      "Ġedges": 4351,
      "Ġroute": 4352,
      "Oper": 4353,
      "Color": 4354,
      "reser": 4355,
      "PS": 4356,
      "Ġlow": 4357,
      "Ġrect": 4358,
      "ba": 4359,
      "ident": 4360,
      "Ġign": 4361,
      "Ġimports": 4362,
      "ĠUI": 4363,
      "Ð¾Ð»": 4364,
      "latform": 4365,
      "Soup": 4366,
      "Ġadded": 4367,
      "Ġfiltered": 4368,
      "torch": 4369,
      "short": 4370,
      "FT": 4371,
      "oto": 4372,
      "Button": 4373,
      "Ġeven": 4374,
      "patch": 4375,
      "ĊĊĠĠĠĠĠĠĠĠĠĠĠĠĠĠĠĠĠĠĠ": 4376,
      "Ġincre": 4377,
      "ĠGUI": 4378,
      "encode": 4379,
      "Ġabout": 4380,
      "Ġ====================": 4381,
      "ĠResult": 4382,
      "pass": 4383,
      "Ġ----------": 4384,
      "car": 4385,
      "ĠDete": 4386,
      "itect": 4387,
      "ied": 4388,
      ")))": 4389,
      "Ġpreprocessing": 4390,
      "freq": 4391,
      "Array": 4392,
      "aw": 4393,
      "Rec": 4394,
      "weets": 4395,
      "autifulSoup": 4396,
      "ĠGenerator": 4397,
      "Ġtick": 4398,
      "Ġregistration": 4399,
      "Session": 4400,
      "amma": 4401,
      "rank": 4402,
      "ëł": 4403,
      "Ġvert": 4404,
      "Ġactions": 4405,
      "blue": 4406,
      "MAGE": 4407,
      "ones": 4408,
      "Ġradius": 4409,
      "uler": 4410,
      "Trans": 4411,
      ":]": 4412,
      "caten": 4413,
      "Ġsection": 4414,
      "Ed": 4415,
      "Event": 4416,
      "sig": 4417,
      "Ġtransaction": 4418,
      "Ġconstra": 4419,
      "Ġupper": 4420,
      "Ġdynamic": 4421,
      "Ġconfigur": 4422,
      "Ġcallable": 4423,
      "Ġenc": 4424,
      "hist": 4425,
      "Ġconf": 4426,
      "ĠNe": 4427,
      "Ġnow": 4428,
      "coming": 4429,
      "dt": 4430,
      "peak": 4431,
      ".\\": 4432,
      "OUTPUT": 4433,
      "ìł": 4434,
      "Ġdel": 4435,
      "Ġcirc": 4436,
      "ĠMongo": 4437,
      "grad": 4438,
      "CV": 4439,
      "Ġframework": 4440,
      "usion": 4441,
      "Ġimported": 4442,
      "ë¡": 4443,
      "ogram": 4444,
      "alog": 4445,
      "åĨ": 4446,
      "ĠShow": 4447,
      "Ġdirectories": 4448,
      "Ġmigration": 4449,
      "ĠĊĠĠĠ": 4450,
      "exec": 4451,
      "Ġsquare": 4452,
      "å°": 4453,
      "tn": 4454,
      "Ġupdates": 4455,
      "Ġnormalized": 4456,
      "Object": 4457,
      "Ġdays": 4458,
      "categ": 4459,
      "Ġterm": 4460,
      "Ġfailure": 4461,
      "validation": 4462,
      "å¯": 4463,
      "pla": 4464,
      "WS": 4465,
      "chine": 4466,
      "Ġdesc": 4467,
      "ĠMod": 4468,
      "IO": 4469,
      "ĠRo": 4470,
      "CTION": 4471,
      "Series": 4472,
      "Ġexport": 4473,
      "Ġ})": 4474,
      "separ": 4475,
      "Ġrepe": 4476,
      "Ġurllib": 4477,
      "Ġ$": 4478,
      "Ġcmd": 4479,
      "Missing": 4480,
      "vari": 4481,
      "Ġold": 4482,
      "ĠComplexity": 4483,
      "Ġargument": 4484,
      "Ġphone": 4485,
      "Ġorchestr": 4486,
      "çĽ": 4487,
      "BUG": 4488,
      "ĠMat": 4489,
      "commit": 4490,
      "ç¨ĭ": 4491,
      "ialog": 4492,
      "ĠExecution": 4493,
      "(\"===": 4494,
      "iddleware": 4495,
      "reshape": 4496,
      "Ġstates": 4497,
      "izers": 4498,
      "Ġfallback": 4499,
      "pc": 4500,
      "interval": 4501,
      "tocol": 4502,
      "ceed": 4503,
      "Ġflow": 4504,
      "Ġpool": 4505,
      "Ġnull": 4506,
      "Ġroom": 4507,
      "Ġjo": 4508,
      "ools": 4509,
      "ested": 4510,
      "ĠÐ´": 4511,
      "Ġprevent": 4512,
      "PORT": 4513,
      "ç½": 4514,
      "ĠEnd": 4515,
      "ĠPri": 4516,
      "tokens": 4517,
      "widget": 4518,
      "Ġdefine": 4519,
      "ãĢģ": 4520,
      "Ġrelated": 4521,
      "Ġpower": 4522,
      "Ġavg": 4523,
      "DS": 4524,
      "()}": 4525,
      "caps": 4526,
      "phone": 4527,
      "ĠInvalid": 4528,
      "edirs": 4529,
      "Example": 4530,
      "Ġtemperature": 4531,
      "alk": 4532,
      "Ġcoe": 4533,
      "nections": 4534,
      "uda": 4535,
      "Ġdetected": 4536,
      "æĢ": 4537,
      "Ġminimum": 4538,
      "epochs": 4539,
      "Ġchecks": 4540,
      "Ġkeep": 4541,
      "series": 4542,
      "Ġfin": 4543,
      "Ġengine": 4544,
      "los": 4545,
      "witch": 4546,
      "Ġcleanup": 4547,
      "duration": 4548,
      "cluster": 4549,
      "ABLE": 4550,
      "Ġflash": 4551,
      "ĠRE": 4552,
      "Ġcapture": 4553,
      "ĠUsage": 4554,
      "makedirs": 4555,
      "ĠAttributeError": 4556,
      "high": 4557,
      "sheet": 4558,
      "binary": 4559,
      "lr": 4560,
      "pacity": 4561,
      "Ġrobot": 4562,
      "NG": 4563,
      "Ġassociated": 4564,
      "lections": 4565,
      "assumed": 4566,
      "Ġneed": 4567,
      "æĹ¶": 4568,
      "TS": 4569,
      "Ġreward": 4570,
      "']}\")": 4571,
      "ĠStarting": 4572,
      "tags": 4573,
      "wd": 4574,
      "ĠTemp": 4575,
      "px": 4576,
      "Ġthese": 4577,
      "Ġattr": 4578,
      "Ġproperly": 4579,
      "ê°": 4580,
      "ëĭĪ": 4581,
      "loop": 4582,
      "LOG": 4583,
      "centage": 4584,
      "ĠSum": 4585,
      "Ġ-------": 4586,
      "AS": 4587,
      "Ġthey": 4588,
      "Ġtermin": 4589,
      "www": 4590,
      "Ġsmall": 4591,
      "/{": 4592,
      "è§": 4593,
      "multip": 4594,
      "Ġconfigured": 4595,
      "gent": 4596,
      "Ext": 4597,
      "Up": 4598,
      "Ġinternal": 4599,
      "ĠCreates": 4600,
      "Ġcontact": 4601,
      "Ġmost": 4602,
      "ÑĨ": 4603,
      "è¯ķ": 4604,
      "Ġ\"=\"": 4605,
      "Ġissues": 4606,
      "riend": 4607,
      "lab": 4608,
      "ench": 4609,
      "âĶ": 4610,
      "ìĦ": 4611,
      "ĠView": 4612,
      "aussian": 4613,
      "ĊĠ": 4614,
      "buffer": 4615,
      "ĠNormalize": 4616,
      "Fore": 4617,
      "Ġbuilt": 4618,
      "fl": 4619,
      "rypted": 4620,
      "ĊĠĠĠĠĠĠĠĠĠĠĠĠĠĠĠĠĊĠĠĠĠĠĠĠĠĠĠĠ": 4621,
      "org": 4622,
      "LAY": 4623,
      "Column": 4624,
      "IDTH": 4625,
      "Ġnums": 4626,
      "PER": 4627,
      "Ġindividual": 4628,
      "mer": 4629,
      "Ġprogress": 4630,
      "Ġchannels": 4631,
      "Ġcheckpoint": 4632,
      "render": 4633,
      "_(\"": 4634,
      "ĠAdmin": 4635,
      "Ġstorage": 4636,
      "ĠUtility": 4637,
      "Integer": 4638,
      "ĠLoc": 4639,
      "imer": 4640,
      "ĠAll": 4641,
      "ither": 4642,
      "ä¸į": 4643,
      "force": 4644,
      "Ġtrue": 4645,
      "otes": 4646,
      "auto": 4647,
      "cover": 4648,
      "xel": 4649,
      "writer": 4650,
      "\"][\"": 4651,
      "times": 4652,
      "CP": 4653,
      "Ġwhitespace": 4654,
      "seconds": 4655,
      "={\"": 4656,
      "signal": 4657,
      "ience": 4658,
      "Sim": 4659,
      "eval": 4660,
      "uest": 4661,
      "elcome": 4662,
      "Ġ-=": 4663,
      "AGE": 4664,
      "ĠFROM": 4665,
      "ĠQuery": 4666,
      "ĠDes": 4667,
      "Ġsimulate": 4668,
      "relu": 4669,
      "Ġpredicted": 4670,
      "ĠSE": 4671,
      "\"^": 4672,
      "Ġauth": 4673,
      "Ġrelative": 4674,
      "Ġpassed": 4675,
      "uthenticated": 4676,
      "chron": 4677,
      "ëĭĪëĭ¤": 4678,
      "Ġda": 4679,
      "ĠServer": 4680,
      "Ġclosed": 4681,
      "clusive": 4682,
      "coords": 4683,
      "ploy": 4684,
      "ĠMeta": 4685,
      "ados": 4686,
      "basicConfig": 4687,
      "frames": 4688,
      "orizont": 4689,
      "access": 4690,
      "rations": 4691,
      "åľ¨": 4692,
      "Ġchanges": 4693,
      "grees": 4694,
      "Max": 4695,
      "Ġframes": 4696,
      "Ġcolors": 4697,
      "positions": 4698,
      "iform": 4699,
      "ĠPredi": 4700,
      "Ġcomments": 4701,
      "Ġpla": 4702,
      "ood": 4703,
      "orizontal": 4704,
      "Ġbrowser": 4705,
      "ply": 4706,
      "vid": 4707,
      "ÑĤÐµ": 4708,
      "RES": 4709,
      "team": 4710,
      "NUM": 4711,
      "ĠDEFAULT": 4712,
      "lation": 4713,
      "long": 4714,
      "itecture": 4715,
      "unch": 4716,
      "fn": 4717,
      "Ġbounds": 4718,
      "ĠWh": 4719,
      "Web": 4720,
      "Ġinstead": 4721,
      "Or": 4722,
      "vide": 4723,
      "Ġselenium": 4724,
      "alf": 4725,
      "END": 4726,
      "Ġconversion": 4727,
      "ride": 4728,
      "Ġwriter": 4729,
      "compute": 4730,
      ").\"\"\"": 4731,
      "Ġcomponent": 4732,
      "Ġart": 4733,
      "callback": 4734,
      "pyplot": 4735,
      "Log": 4736,
      "ulary": 4737,
      "Ġdimension": 4738,
      "ancel": 4739,
      "secret": 4740,
      "Ġinterrupted": 4741,
      "Ġverify": 4742,
      "Ġsite": 4743,
      "Ġprev": 4744,
      "iles": 4745,
      "addr": 4746,
      "cleaned": 4747,
      "Ġinterval": 4748,
      "Ġproperties": 4749,
      "ĠGPIO": 4750,
      "stock": 4751,
      "Ġassumes": 4752,
      "numer": 4753,
      "Ġrequire": 4754,
      "Ġmy": 4755,
      "processing": 4756,
      "cade": 4757,
      "ĠÐ¸": 4758,
      "WIDTH": 4759,
      "az": 4760,
      "Ġplaceholder": 4761,
      "MIN": 4762,
      "ergy": 4763,
      "quential": 4764,
      "lex": 4765,
      "Ġdependencies": 4766,
      "DOW": 4767,
      "ĠYou": 4768,
      "Is": 4769,
      "raise": 4770,
      "ital": 4771,
      "ĠAnalysis": 4772,
      "metadata": 4773,
      "ĠOR": 4774,
      "ìļ": 4775,
      "Ġdele": 4776,
      "ĠÐ½": 4777,
      "Ġinit": 4778,
      "æĸĩä»¶": 4779,
      "Ġutil": 4780,
      "Loader": 4781,
      "person": 4782,
      "ocument": 4783,
      "å·": 4784,
      "åºı": 4785,
      "æľī": 4786,
      "conn": 4787,
      "Output": 4788,
      "hicle": 4789,
      "Ġmis": 4790,
      "USER": 4791,
      "})\"": 4792,
      "ĠObject": 4793,
      "plan": 4794,
      "evalu": 4795,
      "ipped": 4796,
      "Ġìł": 4797,
      "cd": 4798,
      "Ġgrace": 4799,
      "Ġpotential": 4800,
      "memory": 4801,
      "AM": 4802,
      "lies": 4803,
      "Ġleg": 4804,
      "Union": 4805,
      "ĠWait": 4806,
      "placeholder": 4807,
      "\">": 4808,
      "direction": 4809,
      "jac": 4810,
      "Ġfolder": 4811,
      "inary": 4812,
      "Ġlinks": 4813,
      "global": 4814,
      "curity": 4815,
      "Ġseq": 4816,
      "randint": 4817,
      "ĠDemonstrate": 4818,
      "Case": 4819,
      "ĠRendered": 4820,
      "Ð°Ð½": 4821,
      "ysql": 4822,
      "selected": 4823,
      "student": 4824,
      "Ġdetect": 4825,
      "mm": 4826,
      "Ġbuffer": 4827,
      "ily": 4828,
      "ĠFull": 4829,
      "]))": 4830,
      "ĠQt": 4831,
      "()]": 4832,
      "ĠSecond": 4833,
      "clu": 4834,
      "keras": 4835,
      "otor": 4836,
      "ĠEvaluate": 4837,
      "radius": 4838,
      "æŃ": 4839,
      "ĠConnection": 4840,
      "$\",": 4841,
      "ĠScra": 4842,
      "Ġremoved": 4843,
      "lier": 4844,
      "Ġlinear": 4845,
      "vocab": 4846,
      "mt": 4847,
      "Di": 4848,
      "Ġbit": 4849,
      "anel": 4850,
      "ido": 4851,
      "\"\",": 4852,
      "eting": 4853,
      "æľ¬": 4854,
      "Ġformatting": 4855,
      "âĸ": 4856,
      "BO": 4857,
      "Ġsoup": 4858,
      "legend": 4859,
      "Ġ\"\").": 4860,
      "Ġnet": 4861,
      "aily": 4862,
      "learning": 4863,
      "Ġsn": 4864,
      "ffic": 4865,
      "Ġstatic": 4866,
      "edit": 4867,
      "å§": 4868,
      "ivity": 4869,
      "æĮ": 4870,
      "ë¡ľ": 4871,
      "Ġrendering": 4872,
      "å¸": 4873,
      "åŃĺ": 4874,
      "Do": 4875,
      "åĲį": 4876,
      "Ġfilters": 4877,
      "cursive": 4878,
      "Ġuntil": 4879,
      "ĠNode": 4880,
      "support": 4881,
      "Ġthree": 4882,
      "ĠNetwork": 4883,
      "single": 4884,
      "ĠCould": 4885,
      "Loading": 4886,
      "gments": 4887,
      "ĠBeautifulSoup": 4888,
      "where": 4889,
      "dataclass": 4890,
      "ĠAv": 4891,
      "ĠVerify": 4892,
      "è½": 4893,
      "WORD": 4894,
      "Ġcondition": 4895,
      "DD": 4896,
      "Reg": 4897,
      "metric": 4898,
      "Ġappe": 4899,
      "desc": 4900,
      "Ġ[[": 4901,
      "lugin": 4902,
      "ĠCommand": 4903,
      "balance": 4904,
      "ĠField": 4905,
      "Ġpag": 4906,
      "é¢": 4907,
      "ĠSend": 4908,
      "neighb": 4909,
      "ashboard": 4910,
      "Ġcounter": 4911,
      "ĠCO": 4912,
      "gression": 4913,
      "engine": 4914,
      "Ġvar": 4915,
      "ĴĮ": 4916,
      "icles": 4917,
      "Empty": 4918,
      "Ġmulti": 4919,
      "ĠInclude": 4920,
      "download": 4921,
      "umPy": 4922,
      "ĠCalc": 4923,
      "ored": 4924,
      "ranch": 4925,
      "Ġstored": 4926,
      "ways": 4927,
      "ÐµÑĢ": 4928,
      "Validation": 4929,
      "environment": 4930,
      "jection": 4931,
      "OK": 4932,
      "RAN": 4933,
      "ressed": 4934,
      "reward": 4935,
      "udents": 4936,
      "Initialize": 4937,
      "Ġlarge": 4938,
      "Configuration": 4939,
      "±»": 4940,
      "dapt": 4941,
      "Ġsuite": 4942,
      "Processing": 4943,
      "ì§": 4944,
      "ventory": 4945,
      "Ġtrained": 4946,
      "Ġreset": 4947,
      "Ġtensorflow": 4948,
      "agent": 4949,
      "gray": 4950,
      "Ġregular": 4951,
      "QLA": 4952,
      "Ġadditional": 4953,
      "bits": 4954,
      "states": 4955,
      "ber": 4956,
      "Ġbalance": 4957,
      "tol": 4958,
      "sen": 4959,
      "IM": 4960,
      "ĠGoogle": 4961,
      "Ġexecuted": 4962,
      "sa": 4963,
      "rada": 4964,
      "Ġeffect": 4965,
      "sn": 4966,
      "ivo": 4967,
      "Ġsynt": 4968,
      "ird": 4969,
      "Ġgoal": 4970,
      "Ġevery": 4971,
      "defined": 4972,
      "ectors": 4973,
      "lchemy": 4974,
      "ped": 4975,
      "atically": 4976,
      "QLAlchemy": 4977,
      "ively": 4978,
      "Ġrules": 4979,
      "Ġip": 4980,
      "Ġresources": 4981,
      "Classifier": 4982,
      "PUT": 4983,
      "sgi": 4984,
      "AG": 4985,
      "ength": 4986,
      "Ð¾Ð´": 4987,
      "Ġsubmission": 4988,
      "ĠExcel": 4989,
      "ç¬¦": 4990,
      "OUT": 4991,
      "sup": 4992,
      "Ġcalled": 4993,
      "]}\")": 4994,
      "cpu": 4995,
      "ifies": 4996,
      "Page": 4997,
      "Ġdt": 4998,
      "dirname": 4999,
      "ough": 5000,
      "atient": 5001,
      "nums": 5002,
      "Ġem": 5003,
      "updated": 5004,
      "ĠManagement": 5005,
      ")[": 5006,
      "gree": 5007,
      "Ġlogs": 5008,
      "igin": 5009,
      "Ġiteration": 5010,
      "Ġanswer": 5011,
      "Ġfill": 5012,
      "éĶĻ": 5013,
      "Ġreads": 5014,
      "%(": 5015,
      "Handle": 5016,
      "cuda": 5017,
      "/<": 5018,
      "relation": 5019,
      "mbers": 5020,
      "Ġwriting": 5021,
      "linear": 5022,
      "ugment": 5023,
      "Ġutility": 5024,
      "ĠÐ¾": 5025,
      "Ġsal": 5026,
      "Ġque": 5027,
      "Ġunits": 5028,
      "Server": 5029,
      "ĠOver": 5030,
      "\\\\": 5031,
      "hex": 5032,
      "Ġplatform": 5033,
      "colors": 5034,
      "SELECT": 5035,
      "Ġ(-": 5036,
      "Ġturn": 5037,
      "Mat": 5038,
      "HERE": 5039,
      "ideo": 5040,
      "Ġrelationship": 5041,
      "çĶŁ": 5042,
      "pisode": 5043,
      "ullable": 5044,
      "icode": 5045,
      "ĠMongoDB": 5046,
      "orage": 5047,
      "iness": 5048,
      "cm": 5049,
      "ç®": 5050,
      "missing": 5051,
      "ĠnÃºmero": 5052,
      "è¯·": 5053,
      "INGS": 5054,
      "omin": 5055,
      "ĠPlace": 5056,
      "pdf": 5057,
      "æ³ķ": 5058,
      "¨¡": 5059,
      "Ġvolume": 5060,
      "acci": 5061,
      "Ł¥": 5062,
      "Pri": 5063,
      "åĮĸ": 5064,
      "ĠĊĠĠĠĠĠĠĠĠĠĠĠĠĠĠĠ": 5065,
      "subplot": 5066,
      "Ġreceived": 5067,
      "detail": 5068,
      "ìĪĺ": 5069,
      "Ġconstants": 5070,
      "tests": 5071,
      "Ġsecure": 5072,
      "Ġprimary": 5073,
      "¤í": 5074,
      "Ġregex": 5075,
      "ilon": 5076,
      "aler": 5077,
      "Red": 5078,
      "Ã¡ri": 5079,
      "enchmark": 5080,
      "ĠTry": 5081,
      "Status": 5082,
      "Ġret": 5083,
      "groups": 5084,
      "Ñħ": 5085,
      "ĠSplit": 5086,
      "sqrt": 5087,
      "onacci": 5088,
      "Ġresponses": 5089,
      "Ġìŀ": 5090,
      "real": 5091,
      "rule": 5092,
      "vo": 5093,
      "Ġprobability": 5094,
      "Ġvers": 5095,
      "generator": 5096,
      "Ġdecimal": 5097,
      "dot": 5098,
      "Ġsqlite": 5099,
      "ĠStr": 5100,
      "ĠReplace": 5101,
      "uous": 5102,
      "Ġencoded": 5103,
      "Ġcontroller": 5104,
      "Ð¸Ñģ": 5105,
      "ĠGra": 5106,
      "ĠStandard": 5107,
      "Ġentity": 5108,
      "Ġqueries": 5109,
      "']}": 5110,
      "../": 5111,
      "ä¾ĭ": 5112,
      "package": 5113,
      "Ġgroups": 5114,
      "ĠClient": 5115,
      "uce": 5116,
      "è¾ĵåħ¥": 5117,
      "br": 5118,
      "Ġflag": 5119,
      "ĠMap": 5120,
      "forms": 5121,
      "Ġtrigger": 5122,
      "Ġordering": 5123,
      "Ġflask": 5124,
      "Ġopt": 5125,
      "Ġspider": 5126,
      "atial": 5127,
      "ignKey": 5128,
      "He": 5129,
      "power": 5130,
      "Ġpages": 5131,
      "Ġcontainer": 5132,
      "ĠPrepare": 5133,
      "lifi": 5134,
      "ĠNumPy": 5135,
      "fold": 5136,
      "å¼ı": 5137,
      "Ġsimp": 5138,
      "ĠâĢĶ": 5139,
      "ym": 5140,
      "alib": 5141,
      "ccuracy": 5142,
      "wsgi": 5143,
      "NS": 5144,
      "Usage": 5145,
      "Ġdon": 5146,
      "éĻ": 5147,
      "Ġmeasure": 5148,
      "classmethod": 5149,
      "Ġdetailed": 5150,
      "ĠRO": 5151,
      "utor": 5152,
      "Ġtables": 5153,
      "black": 5154,
      "Ġprop": 5155,
      "Ġintegration": 5156,
      "Ġinference": 5157,
      "çł": 5158,
      "ifiers": 5159,
      "Graph": 5160,
      "produc": 5161,
      "Programming": 5162,
      "ĠAssuming": 5163,
      "Ġcategories": 5164,
      "Ġincoming": 5165,
      "Ġmight": 5166,
      "links": 5167,
      "invalid": 5168,
      "tion": 5169,
      "ĠåĪ": 5170,
      "Ã¡l": 5171,
      "irth": 5172,
      "Ġequ": 5173,
      "Ġfrequ": 5174,
      "å¤±": 5175,
      "Ġefficient": 5176,
      "ftime": 5177,
      "witter": 5178,
      "ĠConstruct": 5179,
      "ìĿĺ": 5180,
      "article": 5181,
      "åĪĨ": 5182,
      "lon": 5183,
      "Cannot": 5184,
      "Application": 5185,
      "Search": 5186,
      "dients": 5187,
      "Ġnavig": 5188,
      "Ġiterations": 5189,
      "Ġmodify": 5190,
      "fs": 5191,
      "events": 5192,
      "ìĿĦ": 5193,
      "Ġorgan": 5194,
      "quared": 5195,
      "ĠExamples": 5196,
      "ĠConnect": 5197,
      "lished": 5198,
      "quant": 5199,
      "}]": 5200,
      "ao": 5201,
      "lev": 5202,
      "prime": 5203,
      "incip": 5204,
      "edges": 5205,
      "TT": 5206,
      "ëĬ": 5207,
      "Ġunittest": 5208,
      "Ġcore": 5209,
      "Ġcourse": 5210,
      "ĠFeature": 5211,
      "Python": 5212,
      "Ġdelta": 5213,
      "Ġwant": 5214,
      "Ġtopic": 5215,
      "Ġreus": 5216,
      "ĠMessage": 5217,
      "Context": 5218,
      "period": 5219,
      "çİ": 5220,
      "JSONDecodeError": 5221,
      "ĠStore": 5222,
      "Count": 5223,
      "æĺ¯": 5224,
      "region": 5225,
      "pairs": 5226,
      "ÐºÐ°": 5227,
      "depend": 5228,
      "åĢ": 5229,
      "Ġsolve": 5230,
      "mapping": 5231,
      "ĠOrder": 5232,
      "ĠMinimum": 5233,
      "option": 5234,
      "Ġexactly": 5235,
      "Hello": 5236,
      "DateTime": 5237,
      "digits": 5238,
      "pository": 5239,
      "RequestException": 5240,
      "chain": 5241,
      "Ġtre": 5242,
      "Ġcoordinate": 5243,
      "ĠTra": 5244,
      "faces": 5245,
      "strftime": 5246,
      "ĠScript": 5247,
      "Ġcollect": 5248,
      "Ġvectors": 5249,
      "Sp": 5250,
      "PC": 5251,
      "Ġrequested": 5252,
      "uzz": 5253,
      "Ġsupported": 5254,
      "webdriver": 5255,
      "Ġord": 5256,
      "INE": 5257,
      "ë¥¼": 5258,
      "cluded": 5259,
      "Ä±": 5260,
      "Ġbus": 5261,
      "Ġnullable": 5262,
      "MENT": 5263,
      "ĠValidates": 5264,
      "Ġ?": 5265,
      "Ġworkflow": 5266,
      "Ġfetching": 5267,
      "Ġshell": 5268,
      "collection": 5269,
      "cription": 5270,
      "ĥ½": 5271,
      "enter": 5272,
      "]]):": 5273,
      "`)": 5274,
      "ĠSo": 5275,
      "Ġacc": 5276,
      "çłģ": 5277,
      "ĠTree": 5278,
      "gr": 5279,
      "IMAGE": 5280,
      "vec": 5281,
      "ÑĪ": 5282,
      "Ġpolicy": 5283,
      "Ġprints": 5284,
      "Features": 5285,
      "onal": 5286,
      "ombre": 5287,
      "Ġexperiment": 5288,
      "Ġ):": 5289,
      "mk": 5290,
      "MODEL": 5291,
      "TF": 5292,
      "span": 5293,
      "Ġrecomm": 5294,
      "([\"": 5295,
      "Ġresolution": 5296,
      "subject": 5297,
      "ëł¥": 5298,
      "Ġgradient": 5299,
      "ulo": 5300,
      "hanced": 5301,
      "ULL": 5302,
      "Ġdestination": 5303,
      "Ġbottom": 5304,
      "ĠParsed": 5305,
      "ä¹": 5306,
      "åĪ°": 5307,
      "resses": 5308,
      "stdout": 5309,
      "mooth": 5310,
      "æŀľ": 5311,
      "ç±»": 5312,
      "ĠValue": 5313,
      "HEIGHT": 5314,
      "Ġcountry": 5315,
      "Ġskip": 5316,
      "cated": 5317,
      "ĠRegister": 5318,
      "Ġtrace": 5319,
      "å§ĭ": 5320,
      "Ġmodern": 5321,
      "Ġlon": 5322,
      "separated": 5323,
      "Ġho": 5324,
      "Ġpip": 5325,
      "ĠHel": 5326,
      "Ġperforms": 5327,
      "Ġrotation": 5328,
      "ART": 5329,
      "usic": 5330,
      "DULE": 5331,
      "resource": 5332,
      "suffix": 5333,
      "unct": 5334,
      "SP": 5335,
      "ĠGe": 5336,
      "ĠModular": 5337,
      "Ġcorrectly": 5338,
      "Ġembedding": 5339,
      "Ġextraction": 5340,
      "ĠEX": 5341,
      "Ġcap": 5342,
      "TRA": 5343,
      "istant": 5344,
      "ERS": 5345,
      "¦¬": 5346,
      "Ġnormalize": 5347,
      "ĠMove": 5348,
      "Ġusu": 5349,
      "critical": 5350,
      "ĠClear": 5351,
      "allel": 5352,
      "\"âľħ": 5353,
      "average": 5354,
      "uch": 5355,
      "Ġdocstrings": 5356,
      "íķĺ": 5357,
      "ĠProject": 5358,
      "**:": 5359,
      "ĠSQLAlchemy": 5360,
      "æµĭ": 5361,
      "Ġmany": 5362,
      "pixel": 5363,
      "gument": 5364,
      "ĠMySQL": 5365,
      "Ġencaps": 5366,
      "tod": 5367,
      "uses": 5368,
      "ĠTo": 5369,
      "ĠLO": 5370,
      "components": 5371,
      "ĠAssert": 5372,
      "Ġposts": 5373,
      "ĠWHERE": 5374,
      "logy": 5375,
      "Code": 5376,
      "HOST": 5377,
      "Ġtempor": 5378,
      "gt": 5379,
      "ithub": 5380,
      "âĶĢ": 5381,
      "Ġintegr": 5382,
      "ĠThese": 5383,
      "ĠÐº": 5384,
      "Ġrole": 5385,
      "Ġchain": 5386,
      "dumps": 5387,
      "MPLE": 5388,
      "ç»ĵ": 5389,
      "ĠNoReturn": 5390,
      "CI": 5391,
      "æĿ": 5392,
      "forward": 5393,
      "questions": 5394,
      "fc": 5395,
      "okie": 5396,
      "kernel": 5397,
      "ĠMake": 5398,
      "OF": 5399,
      "Ġcreates": 5400,
      "Django": 5401,
      "Ġflags": 5402,
      "meta": 5403,
      "Ġlookup": 5404,
      ")}\"": 5405,
      "ç´": 5406,
      "æĪ·": 5407,
      "world": 5408,
      "Ġstarts": 5409,
      "coe": 5410,
      "Ġneighbor": 5411,
      "Ġspecial": 5412,
      "XX": 5413,
      "MI": 5414,
      "Ġeps": 5415,
      "encoded": 5416,
      "vars": 5417,
      "ople": 5418,
      "versal": 5419,
      "Ġconfigurations": 5420,
      "ç½®": 5421,
      "Ġignore": 5422,
      "Ġversions": 5423,
      "quit": 5424,
      "sol": 5425,
      "Point": 5426,
      "vider": 5427,
      "ament": 5428,
      "Ġconditions": 5429,
      "Ġtweet": 5430,
      "Ġcould": 5431,
      "Ġë°": 5432,
      "Ġtemplates": 5433,
      "boxes": 5434,
      "compile": 5435,
      "Ġbg": 5436,
      "ç§": 5437,
      "Ġratio": 5438,
      "Ġway": 5439,
      "cos": 5440,
      "ALL": 5441,
      "Group": 5442,
      "Ġgracefully": 5443,
      "):\")": 5444,
      "âĢĶâĢĶâĢĶâĢĶ": 5445,
      "running": 5446,
      "omial": 5447,
      "Ġconsistent": 5448,
      "Ġoption": 5449,
      "grams": 5450,
      "pag": 5451,
      "Ġpublic": 5452,
      "sers": 5453,
      "ferences": 5454,
      "help": 5455,
      "Ġprobabilities": 5456,
      "ĠST": 5457,
      "Ġ[-": 5458,
      "Ġtypically": 5459,
      "pair": 5460,
      "readable": 5461,
      "vies": 5462,
      "Ġimplemented": 5463,
      "audio": 5464,
      "Open": 5465,
      "TEST": 5466,
      "Ġadjust": 5467,
      "apping": 5468,
      "Ġletter": 5469,
      "Content": 5470,
      "Ġcollections": 5471,
      "Ġkwargs": 5472,
      "ftmax": 5473,
      "ĠDataset": 5474,
      "(\"âĿĮ": 5475,
      ".)": 5476,
      "Ġcandidate": 5477,
      "ĠDATA": 5478,
      "ÐµÐ½Ð¸": 5479,
      "uri": 5480,
      "å½ķ": 5481,
      "CS": 5482,
      "ĠBack": 5483,
      "Ġbackend": 5484,
      "=_(\"": 5485,
      "messages": 5486,
      "mic": 5487,
      "ĠProduct": 5488,
      "lide": 5489,
      "Ġred": 5490,
      "utdown": 5491,
      "apply": 5492,
      "ĠAllow": 5493,
      "combin": 5494,
      "sched": 5495,
      "ograph": 5496,
      "Ġattempts": 5497,
      "Command": 5498,
      "='{": 5499,
      "Temp": 5500,
      "è´¥": 5501,
      "ĠDefaults": 5502,
      "åĴĮ": 5503,
      "Ġedit": 5504,
      "Ġapproach": 5505,
      "Ð¾ÑĢ": 5506,
      "encoder": 5507,
      "STM": 5508,
      "Ġfl": 5509,
      "Ġcoding": 5510,
      "Ã¡rio": 5511,
      "Ġcat": 5512,
      "grade": 5513,
      "Serializer": 5514,
      "Service": 5515,
      "ĠRGB": 5516,
      "ê³": 5517,
      "lar": 5518,
      "white": 5519,
      "Ġapplic": 5520,
      "MODULE": 5521,
      "tempt": 5522,
      "Ġconnections": 5523,
      "ascade": 5524,
      "}:{": 5525,
      "SU": 5526,
      "xx": 5527,
      "details": 5528,
      "Ġcustomer": 5529,
      "Ġprior": 5530,
      "Ġdiag": 5531,
      "aff": 5532,
      "Ġrouting": 5533,
      "jor": 5534,
      "Ġuseful": 5535,
      "ĠMark": 5536,
      "ĠSp": 5537,
      "ĠSelect": 5538,
      "TINGS": 5539,
      "Ġremote": 5540,
      "ĠPlayer": 5541,
      "Ġnamed": 5542,
      "Ġcomputation": 5543,
      "spect": 5544,
      "ret": 5545,
      "yg": 5546,
      "ĠTesting": 5547,
      "Ġmeta": 5548,
      "âķ": 5549,
      "Loaded": 5550,
      "ĠConv": 5551,
      "RU": 5552,
      "Ġmetric": 5553,
      "Ġfixed": 5554,
      "Ġproperty": 5555,
      "INT": 5556,
      "lied": 5557,
      "rece": 5558,
      "initialize": 5559,
      "contact": 5560,
      "åĪĹè¡¨": 5561,
      "Ġctx": 5562,
      "Ġtargets": 5563,
      "/\"": 5564,
      ").\")": 5565,
      "CU": 5566,
      "cli": 5567,
      "Ġsw": 5568,
      "rad": 5569,
      "aved": 5570,
      "å»": 5571,
      "Ġmachine": 5572,
      "è¯¯": 5573,
      "åī": 5574,
      "ĠColor": 5575,
      "CHE": 5576,
      "ĠEnsures": 5577,
      "}',": 5578,
      "Ġsender": 5579,
      "][\"": 5580,
      "Ġpopulation": 5581,
      "Ġproducts": 5582,
      "analysis": 5583,
      "ignore": 5584,
      "Ġwhether": 5585,
      "alyze": 5586,
      "æĶ": 5587,
      "ĠOriginal": 5588,
      "Ġdiff": 5589,
      "ĠLoss": 5590,
      "Ġhealth": 5591,
      "åĽŀ": 5592,
      "Ġconfirm": 5593,
      "Ġtransformation": 5594,
      "çī": 5595,
      "èĥ½": 5596,
      "Ġmanaging": 5597,
      "Initial": 5598,
      "ļł": 5599,
      "delay": 5600,
      "Game": 5601,
      "LL": 5602,
      "Ġchecking": 5603,
      "isk": 5604,
      "iver": 5605,
      "numpy": 5606,
      "Ġbyte": 5607,
      "Ġboxes": 5608,
      "Ġadding": 5609,
      "integer": 5610,
      "mock": 5611,
      "Ġcommunic": 5612,
      "Loc": 5613,
      "ĠKeras": 5614,
      "AA": 5615,
      "Ġsimilarity": 5616,
      "rest": 5617,
      "erial": 5618,
      "Ġnote": 5619,
      "volume": 5620,
      "Ġextended": 5621,
      "Ġbeing": 5622,
      "Ġé": 5623,
      "Ġdataclass": 5624,
      "Ġstride": 5625,
      "Ġblocks": 5626,
      "nan": 5627,
      "ĠSize": 5628,
      "ORM": 5629,
      "ĠCom": 5630,
      "payload": 5631,
      "ĠOptim": 5632,
      "docs": 5633,
      "Ġblog": 5634,
      "ĠJson": 5635,
      "ĠMust": 5636,
      "flag": 5637,
      "Ġ\"=\"*": 5638,
      "Ġhuman": 5639,
      "Ġrobustness": 5640,
      "Ĥ¹": 5641,
      "ja": 5642,
      "Ġdivision": 5643,
      "moid": 5644,
      "Ġsetting": 5645,
      "Ġsto": 5646,
      "Ġes": 5647,
      "Ġregression": 5648,
      "frequency": 5649,
      "outputs": 5650,
      "Ġdocuments": 5651,
      "ĠÎ": 5652,
      "NING": 5653,
      "writ": 5654,
      "Ġdp": 5655,
      "null": 5656,
      "argin": 5657,
      "Ð½Ñĭ": 5658,
      "Ġdx": 5659,
      "Ġpytest": 5660,
      "Ġodd": 5661,
      "scaled": 5662,
      "å¤±è´¥": 5663,
      "Int": 5664,
      "roid": 5665,
      "Ġsyn": 5666,
      "Ġasync": 5667,
      "Ġfollowing": 5668,
      "éĶĻè¯¯": 5669,
      "Build": 5670,
      "Ġ[(": 5671,
      "ROOT": 5672,
      "Original": 5673,
      "Ġthreading": 5674,
      "king": 5675,
      "Top": 5676,
      "shot": 5677,
      "exc": 5678,
      "peech": 5679,
      "Ġcombined": 5680,
      "Ġstrategy": 5681,
      "complete": 5682,
      "ĠEst": 5683,
      "DEBUG": 5684,
      "roy": 5685,
      "Ġpixels": 5686,
      "ĠState": 5687,
      "convert": 5688,
      "Ġasyn": 5689,
      "Ġbackward": 5690,
      "rase": 5691,
      "ĠMon": 5692,
      "Size": 5693,
      "Ġmid": 5694,
      "Ġvalor": 5695,
      "Ġeither": 5696,
      "dat": 5697,
      "aur": 5698,
      "Ġenable": 5699,
      "inv": 5700,
      "ļłï¸ı": 5701,
      "ĠSec": 5702,
      "ÑĢÐµ": 5703,
      "Ġaccept": 5704,
      "äºİ": 5705,
      "prop": 5706,
      "Ġfeedback": 5707,
      "ane": 5708,
      "Ġepisode": 5709,
      "Ġspaces": 5710,
      "You": 5711,
      "cons": 5712,
      "Min": 5713,
      "positive": 5714,
      "å®ļ": 5715,
      "lue": 5716,
      "Ġlinewidth": 5717,
      "cfg": 5718,
      "Ġmodularity": 5719,
      "ĠTrack": 5720,
      "icon": 5721,
      "SCA": 5722,
      "cognition": 5723,
      "__()": 5724,
      "Ġcriter": 5725,
      "Ġhandlers": 5726,
      "Script": 5727,
      "rb": 5728,
      "(\"âľħ": 5729,
      "Ġchoices": 5730,
      "ĠFrame": 5731,
      "ATCH": 5732,
      "configure": 5733,
      "ĊĠĠĠĠĠĠĠĠĠĠĠĠĠĠĠĠĠĠĠĠĊĠĠĠĠĠĠĠĠĠĠĠĠĠĠĠĠĠĠĠ": 5734,
      "structure": 5735,
      "ety": 5736,
      "Ġcart": 5737,
      "Ġworld": 5738,
      "lified": 5739,
      "entity": 5740,
      "Ġpriv": 5741,
      "(\"=\"*": 5742,
      "(**": 5743,
      "è·": 5744,
      "Required": 5745,
      "Ġê°": 5746,
      "servation": 5747,
      "ierarch": 5748,
      "ka": 5749,
      "¸°": 5750,
      "hood": 5751,
      "GG": 5752,
      "ĠGraph": 5753,
      "Ġchat": 5754,
      "/',": 5755,
      "Ġdataclasses": 5756,
      "SETTINGS": 5757,
      "bum": 5758,
      "ãģ®": 5759,
      "Ne": 5760,
      "å¹¶": 5761,
      "Ġdetermine": 5762,
      "Ġknown": 5763,
      "Ġmessagebox": 5764,
      "ĊĠĠĠĠĠ": 5765,
      "rf": 5766,
      "github": 5767,
      "pipe": 5768,
      "Ġroutes": 5769,
      "+)": 5770,
      "Ġless": 5771,
      "ĠGlobal": 5772,
      "INTER": 5773,
      "stems": 5774,
      "CLA": 5775,
      "avor": 5776,
      "strict": 5777,
      "ForeignKey": 5778,
      "irt": 5779,
      "cessary": 5780,
      "alyzer": 5781,
      "iterations": 5782,
      "Ġseparate": 5783,
      "åĬŁ": 5784,
      "ryption": 5785,
      "Ġextracted": 5786,
      "ĠMO": 5787,
      "Ġshared": 5788,
      "`:": 5789,
      "equal": 5790,
      "checkpoint": 5791,
      ">\"": 5792,
      "Ġbias": 5793,
      "Ġanalyzer": 5794,
      "movie": 5795,
      "Ro": 5796,
      "Ġplan": 5797,
      "Ġsess": 5798,
      "[[": 5799,
      "Ġserializer": 5800,
      "Custom": 5801,
      "Ġcodes": 5802,
      "Ġconstraints": 5803,
      "tools": 5804,
      "Ð»Ð¸": 5805,
      "btn": 5806,
      "ĠGroup": 5807,
      "\"\")": 5808,
      "ĠPEP": 5809,
      "ä½ľ": 5810,
      "CM": 5811,
      "å»º": 5812,
      "NE": 5813,
      "iÃ³n": 5814,
      "pin": 5815,
      "Ġoptimization": 5816,
      "actors": 5817,
      "UNT": 5818,
      "reating": 5819,
      "letion": 5820,
      "install": 5821,
      "chunk": 5822,
      "Ġutf": 5823,
      "Ġdifference": 5824,
      "arly": 5825,
      "health": 5826,
      "ignal": 5827,
      "åı¯": 5828,
      "reader": 5829,
      "warnings": 5830,
      "merge": 5831,
      "FS": 5832,
      "Ġmaps": 5833,
      "cio": 5834,
      "parameter": 5835,
      "ersist": 5836,
      "Ġmedia": 5837,
      "Ġpreser": 5838,
      "Ġder": 5839,
      "Ġtak": 5840,
      "answer": 5841,
      "den": 5842,
      "Ġpin": 5843,
      "pages": 5844,
      "Table": 5845,
      "ually": 5846,
      "solution": 5847,
      "II": 5848,
      "Ġsecurity": 5849,
      "ĠNOT": 5850,
      "ĠSimple": 5851,
      "mediate": 5852,
      "ĠEnable": 5853,
      "Ġmonitoring": 5854,
      "prev": 5855,
      "ĠFallback": 5856,
      "ĠDate": 5857,
      "Ġsuffix": 5858,
      "Ġsheet": 5859,
      "aa": 5860,
      "'))": 5861,
      "New": 5862,
      "uint": 5863,
      "Ġcli": 5864,
      "Ġenergy": 5865,
      "Ġindent": 5866,
      "hello": 5867,
      "andidates": 5868,
      "ĠCall": 5869,
      "Ġ).": 5870,
      "Ġbounding": 5871,
      "Ġpie": 5872,
      "\"][": 5873,
      "Ġfast": 5874,
      "Ġneural": 5875,
      "eam": 5876,
      "rating": 5877,
      "ĠÃ": 5878,
      "Ġproxy": 5879,
      "Ġdy": 5880,
      "ĠOne": 5881,
      "EXT": 5882,
      "Ġterms": 5883,
      "ibonacci": 5884,
      ",)": 5885,
      "Ġembeddings": 5886,
      "Ġentire": 5887,
      "Ġmarker": 5888,
      "alind": 5889,
      "Ġcontour": 5890,
      "Ġplots": 5891,
      "Ġgrayscale": 5892,
      "alo": 5893,
      "anner": 5894,
      "Variable": 5895,
      "Ġprompt": 5896,
      "}.\")": 5897,
      "levelname": 5898,
      "Ġ---\")": 5899,
      "optimizer": 5900,
      "Category": 5901,
      "ĠSteps": 5902,
      "Ġsur": 5903,
      "TYPE": 5904,
      "Ġvelocity": 5905,
      "localhost": 5906,
      "iling": 5907,
      "iss": 5908,
      "sal": 5909,
      "Ð½Ð°": 5910,
      "units": 5911,
      "atings": 5912,
      "Ġhex": 5913,
      "flags": 5914,
      "lik": 5915,
      "Ġcalculation": 5916,
      "ĠJsonResponse": 5917,
      "calculate": 5918,
      "Ġguess": 5919,
      "DP": 5920,
      "ĠShape": 5921,
      "lst": 5922,
      "Ġsome": 5923,
      "mse": 5924,
      "Ġdegrees": 5925,
      "ĠSV": 5926,
      "æı": 5927,
      "Ġreproduc": 5928,
      "Ġ\"#": 5929,
      "Ġcomputes": 5930,
      "Ġpl": 5931,
      "ĠCase": 5932,
      "after": 5933,
      "td": 5934,
      "Ġ_(\"": 5935,
      "bsite": 5936,
      "ĠPDF": 5937,
      "bias": 5938,
      "Ġìĭ": 5939,
      "Str": 5940,
      "mid": 5941,
      "ulations": 5942,
      "Ġrating": 5943,
      "½æķ°": 5944,
      "ueue": 5945,
      "chat": 5946,
      "aml": 5947,
      "Ġreduce": 5948,
      "ëĬĶ": 5949,
      "Ġphase": 5950,
      "Ġmaintainability": 5951,
      "prediction": 5952,
      "Ġpady": 5953,
      "Ġsentences": 5954,
      "Ġdisk": 5955,
      "TED": 5956,
      "ike": 5957,
      "anc": 5958,
      "records": 5959,
      "Ġturtle": 5960,
      "Ġ\"_": 5961,
      "ĠĠĠĠĠĠĠĠĠĠ": 5962,
      "coding": 5963,
      "åĬ¨": 5964,
      "ä¿Ŀ": 5965,
      "include": 5966,
      "Ġtab": 5967,
      "Ġmoves": 5968,
      "ĠCor": 5969,
      "country": 5970,
      "Ð»ÑĮ": 5971,
      "JAN": 5972,
      "íķ©": 5973,
      "First": 5974,
      "DATE": 5975,
      "ĠImplement": 5976,
      "Ġpk": 5977,
      "istry": 5978,
      "ĠìĿ": 5979,
      "selection": 5980,
      "umul": 5981,
      "Ġscen": 5982,
      "Agent": 5983,
      "Ġvisited": 5984,
      "Ġconsole": 5985,
      "DER": 5986,
      "Ġschedule": 5987,
      "atest": 5988,
      ">\",": 5989,
      "ipher": 5990,
      "Ġ[])": 5991,
      "plat": 5992,
      "-{": 5993,
      "Ġrecon": 5994,
      "LOW": 5995,
      "Ġletters": 5996,
      "Ġcanvas": 5997,
      "Ġhyper": 5998,
      "dtype": 5999,
      "SES": 6000,
      "Ġsecret": 6001,
      "Ĥ¬": 6002,
      "cii": 6003,
      "GS": 6004,
      "Ġwell": 6005,
      "lin": 6006,
      "theta": 6007,
      "Query": 6008,
      "require": 6009,
      "Ġroll": 6010,
      "Ġnormalization": 6011,
      "cms": 6012,
      "JANGO": 6013,
      "ìŀĲ": 6014,
      "ĠSpec": 6015,
      "amb": 6016,
      "ternative": 6017,
      "Ġdefaults": 6018,
      "åŃĹç¬¦": 6019,
      "TEMP": 6020,
      "lapsed": 6021,
      "ĠTimeout": 6022,
      "Ġanother": 6023,
      "olt": 6024,
      "role": 6025,
      "Ð³": 6026,
      "Exist": 6027,
      "ĠWindow": 6028,
      "ĠPh": 6029,
      "Login": 6030,
      "Ġinteract": 6031,
      "################": 6032,
      "ĠSup": 6033,
      "tab": 6034,
      "ĦçĲĨ": 6035,
      "=-": 6036,
      "Ġwebdriver": 6037,
      "topic": 6038,
      "most": 6039,
      "Ġabsolute": 6040,
      "Ġwrapper": 6041,
      "Ġarchitecture": 6042,
      "connected": 6043,
      "green": 6044,
      "bind": 6045,
      "Ġbbox": 6046,
      "rices": 6047,
      "Ġmovement": 6048,
      "ctime": 6049,
      "Ġtools": 6050,
      "compat": 6051,
      "Ġtile": 6052,
      "language": 6053,
      "Email": 6054,
      "vance": 6055,
      "CD": 6056,
      "Ġeas": 6057,
      "ĠBy": 6058,
      "ĠComm": 6059,
      "versed": 6060,
      "æ¨¡": 6061,
      "Ġchart": 6062,
      "oment": 6063,
      "ÑĦ": 6064,
      "Ġ(`": 6065,
      "Ġoperator": 6066,
      "retri": 6067,
      "road": 6068,
      "Ġqueryset": 6069,
      "chars": 6070,
      "ĠCan": 6071,
      "æİ¥": 6072,
      "Ġrecip": 6073,
      "::": 6074,
      "ĠReset": 6075,
      "ndim": 6076,
      "ä¼": 6077,
      "loor": 6078,
      "__}\")": 6079,
      "Ġprocessor": 6080,
      "DateTimeField": 6081,
      "ĠBinary": 6082,
      "Ġcalls": 6083,
      "Ġmigrations": 6084,
      "æĭ": 6085,
      "sess": 6086,
      "CESS": 6087,
      "ador": 6088,
      "prompt": 6089,
      "æģ": 6090,
      "JE": 6091,
      "Ġinteraction": 6092,
      "uation": 6093,
      "ĠDB": 6094,
      "jectory": 6095,
      "calc": 6096,
      "Ġhel": 6097,
      "sentence": 6098,
      "allow": 6099,
      "Ġdialog": 6100,
      "ĠVariable": 6101,
      "Ġcraw": 6102,
      "iloc": 6103,
      "Ġconfidence": 6104,
      "¦Ĥ": 6105,
      "Line": 6106,
      "æłĩ": 6107,
      "feed": 6108,
      "MAIL": 6109,
      "Ġcols": 6110,
      "Ġrecent": 6111,
      "PRE": 6112,
      "afety": 6113,
      "moves": 6114,
      "Map": 6115,
      "Ġprecision": 6116,
      "Var": 6117,
      "éĩı": 6118,
      "Ġreturned": 6119,
      "åº¦": 6120,
      "mac": 6121,
      "variables": 6122,
      "ployment": 6123,
      "Ġautomatically": 6124,
      "ava": 6125,
      "Ġduplicate": 6126,
      "Ġfold": 6127,
      "=====": 6128,
      "Ġaggreg": 6129,
      "Ġdrop": 6130,
      "mkdir": 6131,
      "Ġperm": 6132,
      "wers": 6133,
      "dified": 6134,
      "ĠOper": 6135,
      "Ġcells": 6136,
      "Ġpublish": 6137,
      "ulating": 6138,
      "Ġsimilar": 6139,
      "Ġdir": 6140,
      "Ġsurface": 6141,
      "}...\")": 6142,
      "Ġnested": 6143,
      "tre": 6144,
      "ĠConfigured": 6145,
      "åĻ": 6146,
      "urlpatterns": 6147,
      "ĠBlock": 6148,
      "verbose": 6149,
      "Ġnorm": 6150,
      "Ġplotting": 6151,
      "åĬł": 6152,
      "Ġcomplex": 6153,
      "anit": 6154,
      "ĠRaw": 6155,
      "Pool": 6156,
      "çĶ¨æĪ·": 6157,
      "Ġcompany": 6158,
      "åĢ¼": 6159,
      "usage": 6160,
      "Ġutilities": 6161,
      "yes": 6162,
      "Ġpractice": 6163,
      "éĹ´": 6164,
      "Ġalso": 6165,
      "background": 6166,
      "Dis": 6167,
      "Ġneg": 6168,
      "Ġdecor": 6169,
      "ĠChrome": 6170,
      "entries": 6171,
      "Ġbeta": 6172,
      "CC": 6173,
      "fficients": 6174,
      "grama": 6175,
      "ARNING": 6176,
      "filtered": 6177,
      "ĠTask": 6178,
      "loads": 6179,
      "Exit": 6180,
      "ĠAND": 6181,
      "ĠSets": 6182,
      "ĠDownload": 6183,
      "ĠPipeline": 6184,
      "ĠCLI": 6185,
      "çŃ": 6186,
      "ä¿¡": 6187,
      "ĠUnicode": 6188,
      "Ġenabled": 6189,
      "Ġexamples": 6190,
      "Stream": 6191,
      "On": 6192,
      "cation": 6193,
      "Source": 6194,
      "Ġindicating": 6195,
      "Ġattempt": 6196,
      "ipy": 6197,
      "spa": 6198,
      "Ġjust": 6199,
      "ully": 6200,
      "Ĭ¸": 6201,
      "Ġsubmit": 6202,
      "Ġhard": 6203,
      "çĤ¹": 6204,
      ">\")": 6205,
      "Ġexper": 6206,
      "ball": 6207,
      "cho": 6208,
      "Ġminimal": 6209,
      "ĠSample": 6210,
      "ĠPol": 6211,
      "extra": 6212,
      "(?": 6213,
      "Display": 6214,
      "åĻ¨": 6215,
      "Operation": 6216,
      "Ġcla": 6217,
      "Ġhref": 6218,
      "incipal": 6219,
      "åŀ": 6220,
      "ĠInsert": 6221,
      "sin": 6222,
      "Ġenviron": 6223,
      "Wait": 6224,
      "Post": 6225,
      "Ġsignals": 6226,
      "crement": 6227,
      "friend": 6228,
      "glish": 6229,
      "Ġcert": 6230,
      "elem": 6231,
      "Ð»Ñı": 6232,
      "wra": 6233,
      "ĠMAX": 6234,
      "ĠIncludes": 6235,
      "Ġpacket": 6236,
      "ixt": 6237,
      "Ġshuffle": 6238,
      "Ġcycle": 6239,
      "ĠWord": 6240,
      "zy": 6241,
      "icip": 6242,
      "via": 6243,
      "Ġconsistency": 6244,
      "abc": 6245,
      "Ġlowercase": 6246,
      "ħį": 6247,
      "release": 6248,
      "tasks": 6249,
      "canvas": 6250,
      "ĠAccuracy": 6251,
      "ĠDelete": 6252,
      "Ġ------------------------------------------------": 6253,
      "å¿": 6254,
      "åĩ½æķ°": 6255,
      "Filter": 6256,
      "Argument": 6257,
      "amily": 6258,
      "ips": 6259,
      "Ġfreq": 6260,
      "Conv": 6261,
      "ĠSkipping": 6262,
      "İ·": 6263,
      "fast": 6264,
      "Ġbelow": 6265,
      "variance": 6266,
      "camera": 6267,
      "Ġready": 6268,
      "land": 6269,
      "********": 6270,
      "ĠSpace": 6271,
      "Ġduplicates": 6272,
      "æģ¯": 6273,
      "Ġvalidated": 6274,
      "Ġdummy": 6275,
      "itch": 6276,
      "Action": 6277,
      "Ġencoder": 6278,
      "Ġ[{": 6279,
      "plits": 6280,
      "ARY": 6281,
      "urity": 6282,
      "ĠPlaceholder": 6283,
      "MB": 6284,
      "requires": 6285,
      "Ġdecode": 6286,
      "ĠProcessing": 6287,
      "ĠAb": 6288,
      "æ±": 6289,
      "gue": 6290,
      "ĠTri": 6291,
      "Ġweek": 6292,
      "ÑĢÐ¸": 6293,
      "Ġgenerates": 6294,
      "ctors": 6295,
      "á»": 6296,
      "asing": 6297,
      "ĠGaussian": 6298,
      "Ġradi": 6299,
      "umulative": 6300,
      "ĠId": 6301,
      "Task": 6302,
      "plural": 6303,
      "Each": 6304,
      "Mock": 6305,
      "Ġdeep": 6306,
      "Ġconvolution": 6307,
      "åŀĭ": 6308,
      "Pol": 6309,
      "ĠTk": 6310,
      "bus": 6311,
      "tolist": 6312,
      "Ca": 6313,
      "slug": 6314,
      "Ġlinked": 6315,
      "++": 6316,
      "luster": 6317,
      "Ġdynam": 6318,
      "ĠAutom": 6319,
      "Product": 6320,
      "bold": 6321,
      "Ġfigure": 6322,
      "ops": 6323,
      "Ġvisualize": 6324,
      "Ġdenied": 6325,
      "Ġ\"))": 6326,
      "Ġvertex": 6327,
      "âĶĢâĶĢ": 6328,
      "ĠGPU": 6329,
      "cr": 6330,
      "Com": 6331,
      "ĠFormatted": 6332,
      "Auth": 6333,
      "AUT": 6334,
      "attrs": 6335,
      "Ġmember": 6336,
      "------------------------": 6337,
      "Ġorchestrate": 6338,
      "Ġsigma": 6339,
      "structions": 6340,
      "Ġ\"./": 6341,
      "Ġprovide": 6342,
      "ĠEmail": 6343,
      "MAP": 6344,
      "hest": 6345,
      "ĠBatch": 6346,
      "episode": 6347,
      "igration": 6348,
      "Ġ])": 6349,
      "(\"%": 6350,
      "Ġdone": 6351,
      "ĠMethod": 6352,
      "sw": 6353,
      "(\".": 6354,
      "Ġattack": 6355,
      "week": 6356,
      "Ġtheta": 6357,
      "Ġstdout": 6358,
      "Ð¾Ðº": 6359,
      "chor": 6360,
      "ĠSerial": 6361,
      "mysql": 6362,
      "found": 6363,
      "Ġadjac": 6364,
      "PH": 6365,
      "ĠOpenCV": 6366,
      "dm": 6367,
      "åİ": 6368,
      "course": 6369,
      "é¡µ": 6370,
      "ĠSimulation": 6371,
      "schema": 6372,
      "ĠEmpty": 6373,
      "Ġfe": 6374,
      "Ġretry": 6375,
      "Ġnumerical": 6376,
      "Thread": 6377,
      "rections": 6378,
      "dims": 6379,
      "clip": 6380,
      "Layout": 6381,
      "crimin": 6382,
      "Ġcos": 6383,
      "Token": 6384,
      "Feature": 6385,
      "Ġplugin": 6386,
      "Ġlengths": 6387,
      "ĠEnvironment": 6388,
      "REEN": 6389,
      "coordinate": 6390,
      "percent": 6391,
      "ä¸»": 6392,
      "ĠSupports": 6393,
      "Ġreader": 6394,
      "Ġcompare": 6395,
      "Ġhours": 6396,
      "Final": 6397,
      "asctime": 6398,
      "ĠWork": 6399,
      "ĠEvent": 6400,
      "ĠPub": 6401,
      "shift": 6402,
      "viation": 6403,
      "Ð¶": 6404,
      "Ġreproducibility": 6405,
      "sizes": 6406,
      "ĠToken": 6407,
      "Wh": 6408,
      "aming": 6409,
      "inx": 6410,
      "obs": 6411,
      ".*": 6412,
      "pid": 6413,
      "Ġwx": 6414,
      "cloud": 6415,
      "ĠSafely": 6416,
      "cal": 6417,
      "Generator": 6418,
      "Ġwho": 6419,
      "Ġneighbors": 6420,
      "Entry": 6421,
      "mar": 6422,
      "metic": 6423,
      "License": 6424,
      "oring": 6425,
      "fol": 6426,
      "Ġexpon": 6427,
      "}%": 6428,
      "Ens": 6429,
      "numeric": 6430,
      "CRET": 6431,
      "æµĭè¯ķ": 6432,
      "ino": 6433,
      "Ġmerged": 6434,
      "normalized": 6435,
      "Ġpadx": 6436,
      "irtual": 6437,
      "Ġemployee": 6438,
      "flatten": 6439,
      "Ġonce": 6440,
      "ĠInteg": 6441,
      "ouble": 6442,
      "Ġprices": 6443,
      "Ġminutes": 6444,
      "lision": 6445,
      "reverse": 6446,
      "aly": 6447,
      "Ġcancel": 6448,
      "PASS": 6449,
      "preprocess": 6450,
      "logs": 6451,
      "Ġmodified": 6452,
      "ÐµÐ¼": 6453,
      "Pr": 6454,
      "mble": 6455,
      "Ġassign": 6456,
      "dropout": 6457,
      "å±": 6458,
      "iming": 6459,
      "Ġwave": 6460,
      "ĠNotes": 6461,
      "cert": 6462,
      "super": 6463,
      "arest": 6464,
      "åĿ": 6465,
      "Ġkeywords": 6466,
      "Ġdeleted": 6467,
      "amage": 6468,
      "omic": 6469,
      "ĠNa": 6470,
      "Password": 6471,
      "ĠRedis": 6472,
      "emy": 6473,
      "Using": 6474,
      "ĠSolution": 6475,
      "ĠREST": 6476,
      "Ġscan": 6477,
      "IF": 6478,
      "Ġvocabulary": 6479,
      "Ġlatest": 6480,
      "AML": 6481,
      "=======": 6482,
      "sequences": 6483,
      "Ġcurrently": 6484,
      "PT": 6485,
      "Player": 6486,
      "Ġupd": 6487,
      "Ensure": 6488,
      "æĬ": 6489,
      "ah": 6490,
      "ports": 6491,
      "Ġnecessary": 6492,
      "Ġpackages": 6493,
      "Ġtimezone": 6494,
      "catenate": 6495,
      "åĽ¾": 6496,
      "Sk": 6497,
      "uniform": 6498,
      "RED": 6499,
      "NIST": 6500,
      "GRA": 6501,
      "ivot": 6502,
      "è¿Ķ": 6503,
      "Ġlik": 6504,
      "©º": 6505,
      "ãĢĤ\")": 6506,
      "è®¡": 6507,
      "Ġyears": 6508,
      "Ġdetail": 6509,
      "Ġnews": 6510,
      "Â°": 6511,
      "Ġdisplays": 6512,
      "ithmetic": 6513,
      "Ġrequires": 6514,
      "=(\"": 6515,
      "Level": 6516,
      "tt": 6517,
      "perties": 6518,
      "Ġtweets": 6519,
      "encoding": 6520,
      "My": 6521,
      "wner": 6522,
      "}_{": 6523,
      "Def": 6524,
      "(\"[": 6525,
      "filters": 6526,
      "Act": 6527,
      "mplemented": 6528,
      "gpu": 6529,
      "aves": 6530,
      "future": 6531,
      "ascii": 6532,
      "clusters": 6533,
      "Ġdistances": 6534,
      "ams": 6535,
      "ĠLinear": 6536,
      "member": 6537,
      "()))": 6538,
      "alindrome": 6539,
      "Ġextensions": 6540,
      "ally": 6541,
      "INPUT": 6542,
      "CR": 6543,
      "ĠÑĩ": 6544,
      "Ġdetermin": 6545,
      "commands": 6546,
      "åīį": 6547,
      "><": 6548,
      "ĠTitle": 6549,
      "two": 6550,
      "platform": 6551,
      "ĊĠĠĠĠĠĠĠĠĠĠĠĠĊĠĠĠ": 6552,
      "secut": 6553,
      "Bot": 6554,
      "gence": 6555,
      "Ġboundary": 6556,
      "edia": 6557,
      "levant": 6558,
      "ä¸²": 6559,
      "Ġbucket": 6560,
      "Ġscaling": 6561,
      "Rep": 6562,
      "Ġdescript": 6563,
      "evaluate": 6564,
      "mes": 6565,
      "trip": 6566,
      "Ġ</": 6567,
      "Ġquantity": 6568,
      "matches": 6569,
      "ãĥ¼": 6570,
      "Vector": 6571,
      "Ġreview": 6572,
      "Ġrespon": 6573,
      "AI": 6574,
      "ĠService": 6575,
      "imshow": 6576,
      "tmp": 6577,
      "Ġblue": 6578,
      "TC": 6579,
      "ĠUp": 6580,
      "Ġweather": 6581,
      "scope": 6582,
      "CSV": 6583,
      "Profile": 6584,
      "å¯¹": 6585,
      "Ġdropout": 6586,
      "Ġwere": 6587,
      "bottom": 6588,
      "æŁ¥": 6589,
      "ì§Ģ": 6590,
      "logits": 6591,
      "chronous": 6592,
      "browser": 6593,
      "éĿ": 6594,
      "ĠStatus": 6595,
      "limiter": 6596,
      "Ġwritten": 6597,
      "Ġretrieving": 6598,
      "master": 6599,
      "classifier": 6600,
      "none": 6601,
      "Ġlin": 6602,
      "Ġpatch": 6603,
      "Ġlevels": 6604,
      "Ġdates": 6605,
      "TestCase": 6606,
      "bg": 6607,
      "PAR": 6608,
      "acle": 6609,
      "ĠAI": 6610,
      "air": 6611,
      "Ġthreads": 6612,
      "ĠDataLoader": 6613,
      "çĽ®": 6614,
      "ĠAWS": 6615,
      "ĠImp": 6616,
      "ÑĨÐ¸": 6617,
      "Tag": 6618,
      "getenv": 6619,
      "Ġconverted": 6620,
      "Ġaugment": 6621,
      "LAB": 6622,
      "Ġcommunication": 6623,
      "\"<": 6624,
      "ynomial": 6625,
      "Ġplayers": 6626,
      "Ġsee": 6627,
      "ĠExiting": 6628,
      "Ġconfigures": 6629,
      "Ġbind": 6630,
      ":{": 6631,
      "Ġdeletion": 6632,
      "çº": 6633,
      "Ġê²": 6634,
      "Ġdemo": 6635,
      "ĠForward": 6636,
      "JECT": 6637,
      "imator": 6638,
      "Ġdat": 6639,
      "AND": 6640,
      "Ġworker": 6641,
      "sumer": 6642,
      "Ġtoo": 6643,
      "Ġinteractive": 6644,
      "Ġexpl": 6645,
      "actual": 6646,
      "Ġrelease": 6647,
      "endswith": 6648,
      "Ġexecutable": 6649,
      "İ·åıĸ": 6650,
      "Ġaround": 6651,
      "Ġnamespace": 6652,
      "ĵį": 6653,
      "ĠCounter": 6654,
      "Ġregistered": 6655,
      "Ġ`.": 6656,
      "va": 6657,
      "inclusive": 6658,
      "parents": 6659,
      "Windows": 6660,
      "scra": 6661,
      "RATE": 6662,
      "requests": 6663,
      "Ġband": 6664,
      "gnitude": 6665,
      "sl": 6666,
      "arguments": 6667,
      "Ġendpoints": 6668,
      "Ġreadability": 6669,
      "ĠLearning": 6670,
      "ura": 6671,
      "Ġmal": 6672,
      "è¿ĶåĽŀ": 6673,
      "Sum": 6674,
      "Network": 6675,
      "Mon": 6676,
      "HI": 6677,
      "Socket": 6678,
      "raries": 6679,
      "rgb": 6680,
      "Ġlos": 6681,
      "beta": 6682,
      "ĠTF": 6683,
      "ond": 6684,
      "ĠMapping": 6685,
      "ĠContext": 6686,
      "bove": 6687,
      "icro": 6688,
      "indexed": 6689,
      "note": 6690,
      "raft": 6691,
      "async": 6692,
      "KEN": 6693,
      "Ġworking": 6694,
      "THRE": 6695,
      "Ġpermissions": 6696,
      "Ġconstant": 6697,
      "Ġinterpol": 6698,
      "XT": 6699,
      "Ġreusable": 6700,
      "Ġkeras": 6701,
      "Created": 6702,
      "'ll": 6703,
      "ĠSol": 6704,
      "Ġrepresents": 6705,
      "reduce": 6706,
      "ĠLicense": 6707,
      "WE": 6708,
      "trl": 6709,
      "Det": 6710,
      "policy": 6711,
      "iro": 6712,
      "embedding": 6713,
      "upload": 6714,
      "Function": 6715,
      "marks": 6716,
      "ges": 6717,
      "Ġsolver": 6718,
      "Ġlargest": 6719,
      "Ġsince": 6720,
      "Ġing": 6721,
      "ĠExp": 6722,
      ">=": 6723,
      "segment": 6724,
      "Ġsampling": 6725,
      "stit": 6726,
      "Ġlight": 6727,
      "Load": 6728,
      "ws": 6729,
      "ĠEC": 6730,
      "ĠPosition": 6731,
      "ĠĠĠĠĠĠĠĠĠ": 6732,
      "Ġverification": 6733,
      "formatted": 6734,
      "Meta": 6735,
      "Ġland": 6736,
      "okies": 6737,
      "precated": 6738,
      "tempts": 6739,
      "ĊĠĠĠĠĠĠĠĠĠĠĠĠĠ": 6740,
      "Ġsentiment": 6741,
      "Ġanimation": 6742,
      "ĠPart": 6743,
      "Ġencapsulates": 6744,
      "Ġdot": 6745,
      "uthenticate": 6746,
      "imated": 6747,
      "ga": 6748,
      "Ġfront": 6749,
      "celer": 6750,
      "Ġagainst": 6751,
      "same": 6752,
      "ìĭ": 6753,
      "secutive": 6754,
      "iteral": 6755,
      "å¤ĦçĲĨ": 6756,
      "blank": 6757,
      "Ñİ": 6758,
      "phinx": 6759,
      "ëĵ": 6760,
      "Chrome": 6761,
      "ĠComb": 6762,
      "uuid": 6763,
      "sensitive": 6764,
      "Dete": 6765,
      "flat": 6766,
      "ering": 6767,
      "Ġsystems": 6768,
      "ĠAvoid": 6769,
      "Ġpress": 6770,
      "ORS": 6771,
      "dr": 6772,
      "Ġpercentage": 6773,
      "cam": 6774,
      "ĠAssistant": 6775,
      "categories": 6776,
      "including": 6777,
      "perform": 6778,
      "products": 6779,
      "eps": 6780,
      "Optim": 6781,
      "allest": 6782,
      "container": 6783,
      "Step": 6784,
      "Connect": 6785,
      "ĠGit": 6786,
      "ARD": 6787,
      "rive": 6788,
      "quares": 6789,
      "ĠTool": 6790,
      "*.": 6791,
      "square": 6792,
      "band": 6793,
      "ìĹĲ": 6794,
      "cipe": 6795,
      "eli": 6796,
      "Ġtemporary": 6797,
      "Ð°ÑĤ": 6798,
      "sensor": 6799,
      "ë¦¬": 6800,
      "åıĳ": 6801,
      "circ": 6802,
      "ĠCONFIG": 6803,
      "è¿ĩ": 6804,
      "ĠKe": 6805,
      "Description": 6806,
      "åĲ¦": 6807,
      "Ġsending": 6808,
      "ĠYield": 6809,
      "Linear": 6810,
      "codes": 6811,
      "ĠPage": 6812,
      "NotExist": 6813,
      "ysical": 6814,
      "ĠResults": 6815,
      "Ġreadable": 6816,
      "chase": 6817,
      "Ph": 6818,
      "SD": 6819,
      "Ġseparation": 6820,
      "Order": 6821,
      "children": 6822,
      "Ġmesh": 6823,
      "Ð½Ð¾": 6824,
      "permission": 6825,
      "Ġarticles": 6826,
      "åĳ": 6827,
      "ARGET": 6828,
      "packages": 6829,
      "éĩį": 6830,
      "ĠLa": 6831,
      "idade": 6832,
      "Ġba": 6833,
      "Ġlim": 6834,
      "should": 6835,
      "Ġprepare": 6836,
      "math": 6837,
      "oney": 6838,
      "Ġoptimal": 6839,
      "Implemented": 6840,
      "Ġremoving": 6841,
      "Ġspect": 6842,
      "Ġsizes": 6843,
      "Ġgamma": 6844,
      "Does": 6845,
      "raises": 6846,
      "Ġshift": 6847,
      "LED": 6848,
      "ĠCons": 6849,
      "company": 6850,
      "mu": 6851,
      "Ġenvironments": 6852,
      "Ġformats": 6853,
      "rea": 6854,
      "Ġoccurren": 6855,
      "ĠPrints": 6856,
      "HTML": 6857,
      "unknown": 6858,
      "Core": 6859,
      "ftware": 6860,
      "Ver": 6861,
      "ĠRob": 6862,
      "letter": 6863,
      "lu": 6864,
      "tyle": 6865,
      "scal": 6866,
      "!\"": 6867,
      "ĠMultip": 6868,
      "ĠPIL": 6869,
      "without": 6870,
      "ientation": 6871,
      "framework": 6872,
      "åĲİ": 6873,
      "cla": 6874,
      "Ġlista": 6875,
      "ateway": 6876,
      "bn": 6877,
      "Ġdetector": 6878,
      "NGTH": 6879,
      "æĢ§": 6880,
      "js": 6881,
      "ĠCode": 6882,
      "ĠTemplate": 6883,
      "Ġexceed": 6884,
      "ĠBot": 6885,
      "oo": 6886,
      "modules": 6887,
      "simil": 6888,
      "scatter": 6889,
      "TOKEN": 6890,
      "ĠMatrix": 6891,
      "noise": 6892,
      "Sample": 6893,
      "Ġservers": 6894,
      "hetic": 6895,
      "Ġartist": 6896,
      "media": 6897,
      "character": 6898,
      "arange": 6899,
      "Ġincluded": 6900,
      "ADME": 6901,
      "rum": 6902,
      "igen": 6903,
      "ê°Ģ": 6904,
      "acher": 6905,
      "æ¯": 6906,
      "Ġ:,": 6907,
      "[@": 6908,
      "ĠHelper": 6909,
      "texts": 6910,
      "ltk": 6911,
      "ios": 6912,
      "ĠLoads": 6913,
      "chan": 6914,
      "ners": 6915,
      "Ġcircle": 6916,
      "Version": 6917,
      "Auto": 6918,
      "ygon": 6919,
      "Ġinser": 6920,
      "resize": 6921,
      "cp": 6922,
      "liance": 6923,
      "sity": 6924,
      "=['": 6925,
      "URE": 6926,
      "Ġserves": 6927,
      "ĊĠĠĠĠĠĠĠĠĠ": 6928,
      "ced": 6929,
      "Ġlisting": 6930,
      "pickle": 6931,
      "Ġgene": 6932,
      "blocks": 6933,
      "¼Ķ": 6934,
      "Ge": 6935,
      "Ġnewline": 6936,
      "æķ´": 6937,
      "']:.": 6938,
      "Ġfaces": 6939,
      "mesh": 6940,
      "alt": 6941,
      "Ġhistogram": 6942,
      "apshot": 6943,
      "Ġsuit": 6944,
      "Ġprote": 6945,
      "Ġfilenames": 6946,
      "Ġinher": 6947,
      "ĠVector": 6948,
      "ĠTop": 6949,
      "controller": 6950,
      "energy": 6951,
      "Ġhorizontal": 6952,
      "bed": 6953,
      "aring": 6954,
      "ĠNotImplemented": 6955,
      "COUNT": 6956,
      "covery": 6957,
      "RF": 6958,
      "ìľ": 6959,
      "Ġcloud": 6960,
      "Iter": 6961,
      "Ġtrip": 6962,
      "ĠAverage": 6963,
      "Ġupdating": 6964,
      "Ġtruth": 6965,
      "ç©º": 6966,
      "gi": 6967,
      "ĠPort": 6968,
      "Target": 6969,
      "____": 6970,
      "ĠAdjust": 6971,
      "temperature": 6972,
      "Ġstation": 6973,
      "aurant": 6974,
      "ĠSQLite": 6975,
      "public": 6976,
      "scribe": 6977,
      "§è¡Į": 6978,
      "æĸ¹": 6979,
      "LENGTH": 6980,
      "Ġcircuit": 6981,
      "...,": 6982,
      "Ġcommit": 6983,
      "ĠButton": 6984,
      "LIC": 6985,
      "proxy": 6986,
      "QUEST": 6987,
      "oms": 6988,
      "axes": 6989,
      "âĸĪ": 6990,
      "ĠUncomment": 6991,
      "íķ©ëĭĪëĭ¤": 6992,
      "æĸ°": 6993,
      "LS": 6994,
      "ppings": 6995,
      "DoesNotExist": 6996,
      "ĠLogin": 6997,
      "diag": 6998,
      "Ġíķ": 6999,
      "npy": 7000,
      "pet": 7001,
      "follow": 7002,
      "Ġhalf": 7003,
      "uggest": 7004,
      "Block": 7005,
      "directories": 7006,
      "Ġepsilon": 7007,
      "Ġsca": 7008,
      "upported": 7009,
      "queryset": 7010,
      "Title": 7011,
      "Ent": 7012,
      "mag": 7013,
      "xpath": 7014,
      "ĠSuccess": 7015,
      "Ġprogramming": 7016,
      "logical": 7017,
      "ĠRedirect": 7018,
      "stractmethod": 7019,
      "iler": 7020,
      "ĠOptionally": 7021,
      "ĠVisualization": 7022,
      "currency": 7023,
      "ĠCollect": 7024,
      "End": 7025,
      "Font": 7026,
      "cards": 7027,
      "quee": 7028,
      "Predi": 7029,
      "illa": 7030,
      "distribution": 7031,
      "ĠBasic": 7032,
      "lists": 7033,
      "Batch": 7034,
      "Ġmouse": 7035,
      "radi": 7036,
      "cart": 7037,
      "Av": 7038,
      "hook": 7039,
      "Ġborder": 7040,
      "Matrix": 7041,
      "Work": 7042,
      "alibration": 7043,
      "\"]),": 7044,
      "Ġsafety": 7045,
      "Ġconstruct": 7046,
      "igure": 7047,
      "Tk": 7048,
      "sur": 7049,
      "FE": 7050,
      "DATABASE": 7051,
      "arger": 7052,
      "ighest": 7053,
      "Ġlr": 7054,
      "ĠGrid": 7055,
      "probs": 7056,
      "Track": 7057,
      "ħëł¥": 7058,
      "Ġrecurs": 7059,
      "Ġbits": 7060,
      "Ġfra": 7061,
      "alend": 7062,
      "jobs": 7063,
      "stributed": 7064,
      "plug": 7065,
      "Part": 7066,
      "GHT": 7067,
      "èĩ": 7068,
      "Ġfavor": 7069,
      "ĠVAL": 7070,
      "è¯ģ": 7071,
      "ĠÐ·": 7072,
      "datasets": 7073,
      "Record": 7074,
      "Ġåı": 7075,
      "Ġchildren": 7076,
      "pipeline": 7077,
      "Ġexclude": 7078,
      "Ġhttps": 7079,
      "Tra": 7080,
      "ç®Ĺ": 7081,
      "ĠReads": 7082,
      "seline": 7083,
      "ĠSystemExit": 7084,
      "ĠCPU": 7085,
      "ocker": 7086,
      "fra": 7087,
      "pytest": 7088,
      "rl": 7089,
      "ĠSequence": 7090,
      "Ġimprove": 7091,
      "ĊĠĠĠĠĠĠĠĠĠĠĠĠĠĠĠĠĊĠĠĠĠĠĠĠ": 7092,
      "uestion": 7093,
      "Permission": 7094,
      "ĠFit": 7095,
      "Ġ\"<": 7096,
      "æľª": 7097,
      "'}": 7098,
      "interface": 7099,
      "Ġseen": 7100,
      "Ġmembers": 7101,
      "¼Ķç¤º": 7102,
      "Ġregions": 7103,
      "Ġown": 7104,
      "Extract": 7105,
      "....": 7106,
      "blog": 7107,
      "ĠSession": 7108,
      "Ġmismatch": 7109,
      "tock": 7110,
      "ĠDetect": 7111,
      "TA": 7112,
      "ONT": 7113,
      "DJANGO": 7114,
      "ĠDense": 7115,
      "Ġorigin": 7116,
      "lastic": 7117,
      "HO": 7118,
      "Ġcipher": 7119,
      "pie": 7120,
      "customer": 7121,
      "Ġcombinations": 7122,
      "Ġìĺ": 7123,
      "angles": 7124,
      "neg": 7125,
      "ĠLength": 7126,
      "fficiency": 7127,
      "ìĬ¤í": 7128,
      "Ġtriangle": 7129,
      "ĠPassword": 7130,
      "velocity": 7131,
      "isdigit": 7132,
      "ĠItem": 7133,
      "ĠTkinter": 7134,
      "Layer": 7135,
      "Comm": 7136,
      "sence": 7137,
      "FLA": 7138,
      "åħĥ": 7139,
      "ggle": 7140,
      "SM": 7141,
      "Ġexplicit": 7142,
      "bi": 7143,
      "operation": 7144,
      "ĠAs": 7145,
      "your": 7146,
      "OLD": 7147,
      "cha": 7148,
      "ĠLine": 7149,
      "ĠRoot": 7150,
      "ker": 7151,
      "ĠChar": 7152,
      "ä½į": 7153,
      "ĠLocal": 7154,
      "WIN": 7155,
      "chool": 7156,
      "Ġgreater": 7157,
      "Ġnx": 7158,
      "neighbors": 7159,
      "LP": 7160,
      "ĠDocument": 7161,
      "Sele": 7162,
      "Ġbuttons": 7163,
      "beled": 7164,
      "subplots": 7165,
      "imize": 7166,
      "Ġ((": 7167,
      "Ġlater": 7168,
      "ĠAnalyze": 7169,
      "Met": 7170,
      "ĠFound": 7171,
      "ĠSource": 7172,
      "bb": 7173,
      "YTH": 7174,
      "ĠLSTM": 7175,
      "ADD": 7176,
      "Ġalphabet": 7177,
      "izz": 7178,
      "cepts": 7179,
      "Ġspatial": 7180,
      "ä¿¡æģ¯": 7181,
      "quantity": 7182,
      "Back": 7183,
      "âķĲ": 7184,
      "Ġprotocol": 7185,
      "Ġpayment": 7186,
      "Ġadapt": 7187,
      "ĠĠĠĠĠĠĠĠĠĠĠ": 7188,
      "adr": 7189,
      "ains": 7190,
      "Ġrectangle": 7191,
      "contour": 7192,
      "rollback": 7193,
      "Ġscope": 7194,
      "Ġfrequencies": 7195,
      "è·¯": 7196,
      "Ġpagination": 7197,
      "Ġsignature": 7198,
      "destroy": 7199,
      "vate": 7200,
      "ĠUnique": 7201,
      "Ġscrape": 7202,
      "HEAD": 7203,
      "Ġdr": 7204,
      "Ġnavigation": 7205,
      "news": 7206,
      "Ġcards": 7207,
      "submit": 7208,
      "Ġsty": 7209,
      "ĠTrained": 7210,
      "Ġpersist": 7211,
      "ĠPerson": 7212,
      "prior": 7213,
      "population": 7214,
      "Surface": 7215,
      "Ġ}),": 7216,
      "ropped": 7217,
      "Ġscrapy": 7218,
      "CASCA": 7219,
      "CASCADE": 7220,
      "Ġbins": 7221,
      "surface": 7222,
      "erc": 7223,
      "izable": 7224,
      "Ġscipy": 7225,
      "CAL": 7226,
      "vectors": 7227,
      "ĠDisplays": 7228,
      "pache": 7229,
      "ä¸ĭ": 7230,
      "Ð¾Ð¼": 7231,
      "ç»ĵæŀľ": 7232,
      "Div": 7233,
      "WA": 7234,
      "Ġloader": 7235,
      "uel": 7236,
      "YTHON": 7237,
      "Ġprograma": 7238,
      "å®ŀ": 7239,
      "]/": 7240,
      "Ġsong": 7241,
      "ĠIterator": 7242,
      "Dele": 7243,
      "¦ģ": 7244,
      "zen": 7245,
      "Ġerr": 7246,
      "lope": 7247,
      "åĲĪ": 7248,
      "keyword": 7249,
      "means": 7250,
      "ä¸Ģä¸ª": 7251,
      "DOWN": 7252,
      "Ġshutdown": 7253,
      "Running": 7254,
      "workers": 7255,
      "ĠSy": 7256,
      "Ġexceptions": 7257,
      "Ġvertices": 7258,
      "uning": 7259,
      "byte": 7260,
      "}'.\")": 7261,
      "duplic": 7262,
      "Ġscraping": 7263,
      "'\")": 7264,
      "Ġdefaultdict": 7265,
      "Ġgu": 7266,
      "iso": 7267,
      "Ġentrada": 7268,
      "æ±Ĥ": 7269,
      "TIMEOUT": 7270,
      "Ġti": 7271,
      "sender": 7272,
      "\"})": 7273,
      "ĠFace": 7274,
      "Video": 7275,
      "Ġball": 7276,
      "THRESH": 7277,
      "ĠBut": 7278,
      "ĠusuÃ¡rio": 7279,
      "alendar": 7280,
      "Ġtoler": 7281,
      "acion": 7282,
      "åįķ": 7283,
      "ĠDemonstrates": 7284,
      "dates": 7285,
      "Ġassignment": 7286,
      "experiment": 7287,
      "vides": 7288,
      "bins": 7289,
      "ĠControl": 7290,
      "cerns": 7291,
      "SECRET": 7292,
      "Project": 7293,
      "ĊĠĠĠĠĠĠĠĠĠĠĠĠĠĠĠĠĠĠ": 7294,
      "Ġsorting": 7295,
      "ARCH": 7296,
      "å·²": 7297,
      "Normal": 7298,
      "olved": 7299,
      "ĠĠĠĠĠĠĠĠĠĠĠĠ": 7300,
      "robot": 7301,
      "ASE": 7302,
      "]]]:": 7303,
      "entropy": 7304,
      "æľĢ": 7305,
      "Ġvehicle": 7306,
      "Be": 7307,
      "Ġstruct": 7308,
      "trace": 7309,
      "mc": 7310,
      "aps": 7311,
      "Ġmass": 7312,
      "queeze": 7313,
      "Controller": 7314,
      "ĠEnter": 7315,
      "ĠPredicted": 7316,
      "Ľå»º": 7317,
      "!\",": 7318,
      "IntegerField": 7319,
      "SCRI": 7320,
      "UND": 7321,
      "must": 7322,
      "properties": 7323,
      "Ġwall": 7324,
      "ìļ©": 7325,
      "ĠCar": 7326,
      "Ġmu": 7327,
      "ĠLay": 7328,
      "]:.": 7329,
      "(\",": 7330,
      "ĠInitializes": 7331,
      "allet": 7332,
      "coordinates": 7333,
      "Ġbul": 7334,
      "ancial": 7335,
      "éª": 7336,
      "Ġgenerating": 7337,
      "Ġlogged": 7338,
      "Ġhold": 7339,
      "ĠMet": 7340,
      "ando": 7341,
      "Ġstick": 7342,
      "Ġdecoded": 7343,
      "Ġfood": 7344,
      "Ġæĸ": 7345,
      "ana": 7346,
      "Ġfigsize": 7347,
      "perm": 7348,
      "ĠInterface": 7349,
      "Ġscraper": 7350,
      "Ġmatrices": 7351,
      "Ġauthenticated": 7352,
      "Ġjoin": 7353,
      "Ġsimulates": 7354,
      "ĠUpdated": 7355,
      "storage": 7356,
      "losses": 7357,
      "targets": 7358,
      "ĠNULL": 7359,
      "publish": 7360,
      "Ġreach": 7361,
      "ĊĠĠĠĠĠĠĠĠĠĠĠĠĠĠĠĠĠ": 7362,
      "pired": 7363,
      "configuration": 7364,
      "methods": 7365,
      "Ġcmap": 7366,
      "Resource": 7367,
      "åŃĹç¬¦ä¸²": 7368,
      "ĠYields": 7369,
      "As": 7370,
      "compatible": 7371,
      "Ġstudents": 7372,
      "Ġaddresses": 7373,
      "STR": 7374,
      "å¤§": 7375,
      "initializer": 7376,
      "operations": 7377,
      "Ġstarted": 7378,
      "posts": 7379,
      "vm": 7380,
      "Ġtolerance": 7381,
      "hours": 7382,
      "Ġconcerns": 7383,
      "pkl": 7384,
      "ĠLink": 7385,
      "isfile": 7386,
      "Ġcancelled": 7387,
      "MON": 7388,
      "crete": 7389,
      "primary": 7390,
      "Ġclusters": 7391,
      "sec": 7392,
      "vs": 7393,
      "lang": 7394,
      "æĹ¥": 7395,
      "æıĲ": 7396,
      "Validator": 7397,
      "VERSION": 7398,
      "Ġlogits": 7399,
      "cross": 7400,
      "Ġmeans": 7401,
      "processor": 7402,
      "')}\")": 7403,
      "remain": 7404,
      "Ġtitles": 7405,
      "FORM": 7406,
      "Ġalert": 7407,
      "Ġsymbols": 7408,
      "ĠPo": 7409,
      "oltage": 7410,
      "roadcast": 7411,
      "Ġsafely": 7412,
      "ĠDecimal": 7413,
      "ĠSelenium": 7414,
      "Cur": 7415,
      "dirs": 7416,
      "condition": 7417,
      "owner": 7418,
      "Ġdaily": 7419,
      "SK": 7420,
      "atmap": 7421,
      "æŃ£": 7422,
      "ĠInt": 7423,
      "mpl": 7424,
      "hi": 7425,
      "Current": 7426,
      "ctx": 7427,
      "ĠLED": 7428,
      "Ġscaler": 7429,
      "Ġpen": 7430,
      "coin": 7431,
      "ĠFibonacci": 7432,
      "structed": 7433,
      "upt": 7434,
      "ixin": 7435,
      "Ð¾Ð³": 7436,
      "ĥĿ": 7437,
      "vanced": 7438,
      "Draw": 7439,
      "anning": 7440,
      "ĠìĪĺ": 7441,
      "ĠOUTPUT": 7442,
      "lec": 7443,
      "xls": 7444,
      "vation": 7445,
      "Ġalong": 7446,
      "players": 7447,
      "ë³": 7448,
      "Instance": 7449,
      "ĠDo": 7450,
      "CTOR": 7451,
      "SCII": 7452,
      "decimal": 7453,
      "Ġhierarch": 7454,
      "setdefault": 7455,
      "ĠBlue": 7456,
      "squared": 7457,
      "sd": 7458,
      "Ġcomputed": 7459,
      "Ġsmooth": 7460,
      "ĠASGI": 7461,
      "ĠTwitter": 7462,
      "ĠExit": 7463,
      "æŀĲ": 7464,
      "obile": 7465,
      "Ġincrement": 7466,
      "æ¬": 7467,
      "Ġtransforms": 7468,
      "Ġxml": 7469,
      "ĠIdent": 7470,
      "Ġquestions": 7471,
      "Ġforce": 7472,
      "Ġvertical": 7473,
      "Ġpor": 7474,
      "Ġappend": 7475,
      "Ġclustering": 7476,
      "rength": 7477,
      "mass": 7478,
      "Ġmet": 7479,
      "ĠImplementation": 7480,
      "dependent": 7481,
      "Ġfg": 7482,
      "Ġapplications": 7483,
      "-----": 7484,
      "Ġabove": 7485,
      "Torch": 7486,
      "Ġbuilding": 7487,
      "After": 7488,
      "ĠInd": 7489,
      "cending": 7490,
      "udo": 7491,
      "Ġinventory": 7492,
      "prices": 7493,
      "expr": 7494,
      "æł¼": 7495,
      "Ġfew": 7496,
      "alchemy": 7497,
      "Ġlst": 7498,
      ">\\": 7499,
      ":-": 7500,
      "bucket": 7501,
      "ĠLoaded": 7502,
      "mpts": 7503,
      "Ġcapacity": 7504,
      "Ġutils": 7505,
      "ti": 7506,
      "AST": 7507,
      "ĠDep": 7508,
      "Ġpartial": 7509,
      "Ħì": 7510,
      "System": 7511,
      "Exec": 7512,
      "ĠInstall": 7513,
      "AV": 7514,
      "æīĢ": 7515,
      "ĠCombine": 7516,
      "ĠAuto": 7517,
      "Ġground": 7518,
      "ĠWindows": 7519,
      "AUTH": 7520,
      "basename": 7521,
      "Ġì¶": 7522,
      "ĠSingle": 7523,
      "Ġtech": 7524,
      "differ": 7525,
      "ĠCa": 7526,
      "IME": 7527,
      "izations": 7528,
      "Ġprivate": 7529,
      "Ġfully": 7530,
      "Ġsock": 7531,
      "ê¸°": 7532,
      "ĠTable": 7533,
      "Ġcategorical": 7534,
      "ĠStudent": 7535,
      "ĠÐŁ": 7536,
      "Ġ\"{": 7537,
      "SERT": 7538,
      "BC": 7539,
      "Ġmaking": 7540,
      "ä¸İ": 7541,
      "sentences": 7542,
      "ism": 7543,
      "ĠClassification": 7544,
      "Ġhelper": 7545,
      "LOAD": 7546,
      "Ġdelimiter": 7547,
      "Ġserialization": 7548,
      "ĠHow": 7549,
      "å¸¸": 7550,
      "ĠWhen": 7551,
      "=\"\",": 7552,
      "SL": 7553,
      "Ġapplied": 7554,
      "Ġrequirements": 7555,
      "ĠPrompt": 7556,
      "artist": 7557,
      "Ġsegmentation": 7558,
      "ĠHandling": 7559,
      "íķľ": 7560,
      "Ġmaster": 7561,
      "schedule": 7562,
      "Ġcurrency": 7563,
      "Ġbenchmark": 7564,
      "ĠRout": 7565,
      "Ġslug": 7566,
      "Ġsegments": 7567,
      "enabled": 7568,
      "ionError": 7569,
      "oration": 7570,
      "Ġalignment": 7571,
      "Ġmalformed": 7572,
      "Timeout": 7573,
      "Ġeval": 7574,
      "progress": 7575,
      "íĻ": 7576,
      "inct": 7577,
      "Ġsaves": 7578,
      "ano": 7579,
      "Plot": 7580,
      "UES": 7581,
      "aÃ§Ã£o": 7582,
      "Ġrelevant": 7583,
      "íĦ": 7584,
      "pects": 7585,
      "lengths": 7586,
      "ĠDetection": 7587,
      "Ġfree": 7588,
      "Ġsleep": 7589,
      "constant": 7590,
      "USE": 7591,
      "SERVER": 7592,
      "Ġruntime": 7593,
      "credentials": 7594,
      "href": 7595,
      "Ġprincipal": 7596,
      "program": 7597,
      "ĠìĹ": 7598,
      "Ġsources": 7599,
      "folio": 7600,
      "ade": 7601,
      "Ġìłķ": 7602,
      "hn": 7603,
      "tweet": 7604,
      "git": 7605,
      "ocial": 7606,
      "Ġrepository": 7607,
      "Ġ===\\": 7608,
      "PASSWORD": 7609,
      "Pos": 7610,
      "åĨħ": 7611,
      "Ġdeprecated": 7612,
      "Ġdst": 7613,
      "une": 7614,
      "allen": 7615,
      "ArgumentParser": 7616,
      "batches": 7617,
      "transaction": 7618,
      "IS": 7619,
      "è§£": 7620,
      "friendly": 7621,
      "Random": 7622,
      "EMAIL": 7623,
      "Ġincorrect": 7624,
      "ickness": 7625,
      "Loss": 7626,
      "reens": 7627,
      "ired": 7628,
      "cessing": 7629,
      "RGB": 7630,
      "Uns": 7631,
      "ĠSpark": 7632,
      "Ġdevices": 7633,
      "å¾Ħ": 7634,
      "repo": 7635,
      "ĠDevice": 7636,
      "ulty": 7637,
      "Ġtraversal": 7638,
      "Ġtransfer": 7639,
      "ĠĊĠĠĠĠĠĠĠĠĠĠĠĠĠĠĠĠĠĠĠĠĠĠĠĠĠĠĠĠ": 7640,
      "ĠZero": 7641,
      "outh": 7642,
      "skip": 7643,
      "erg": 7644,
      "reference": 7645,
      "ĠAuthentication": 7646,
      "ĠCurrently": 7647,
      "generated": 7648,
      "fect": 7649,
      "Sec": 7650,
      "ĠSummary": 7651,
      "ticle": 7652,
      "ĊĠĠĠĠĠĠĠĠĠĠĠĠĠĠĠĠĠĠĠĠĠĠ": 7653,
      "UE": 7654,
      "Ġ'-": 7655,
      "google": 7656,
      "Scra": 7657,
      "Board": 7658,
      "unctuation": 7659,
      "visual": 7660,
      "Ġpiece": 7661,
      "abspath": 7662,
      "éħį": 7663,
      "(\"/\")": 7664,
      "Ġtimestamps": 7665,
      "decay": 7666,
      "uncomment": 7667,
      "Document": 7668,
      "Ġscene": 7669,
      "æĹł": 7670,
      "acts": 7671,
      "ĠCNN": 7672,
      "comes": 7673,
      "functions": 7674,
      "ĠVersion": 7675,
      "ellow": 7676,
      "ĠÐ¼": 7677,
      "Ġbad": 7678,
      "UID": 7679,
      "iff": 7680,
      "ifications": 7681,
      "Bu": 7682,
      "rep": 7683,
      "Ra": 7684,
      "ãĤĴ": 7685,
      "Ass": 7686,
      "ĠCloud": 7687,
      "/$\",": 7688,
      "Ġslice": 7689,
      "wb": 7690,
      "Ġpick": 7691,
      "expand": 7692,
      "utations": 7693,
      "Position": 7694,
      "Ġheap": 7695,
      "ĠAction": 7696,
      "gu": 7697,
      "omentum": 7698,
      "Ġuploaded": 7699,
      "remote": 7700,
      "pter": 7701,
      "etches": 7702,
      "Ġtranslation": 7703,
      "ĠReal": 7704,
      "antic": 7705,
      "ĠParses": 7706,
      "ef": 7707,
      "Ġentities": 7708,
      "changed": 7709,
      "tile": 7710,
      "books": 7711,
      "Ġdashboard": 7712,
      "lict": 7713,
      "æľŁ": 7714,
      "Ġactivity": 7715,
      "Ġicon": 7716,
      "ess": 7717,
      "Ġtrainer": 7718,
      "dx": 7719,
      "verted": 7720,
      "Ġ~": 7721,
      "argmax": 7722,
      "uble": 7723,
      "å¦Ĥ": 7724,
      "ç»Ħ": 7725,
      "ĊĠĠĠĠĠĠĠĠĠĠĠĠĠĠĠĠĠĠĠĠĠ": 7726,
      "Ġattention": 7727,
      "mn": 7728,
      "Ġtoday": 7729,
      "ĠMulti": 7730,
      "åı£": 7731,
      "Read": 7732,
      "bosity": 7733,
      "Ġsubset": 7734,
      "âķĲâķĲ": 7735,
      "attribute": 7736,
      "Ġgrad": 7737,
      "okup": 7738,
      "Ġfo": 7739,
      "bra": 7740,
      "Ġmanip": 7741,
      "Ġreason": 7742,
      "holders": 7743,
      "\")),": 7744,
      "gamma": 7745,
      "slot": 7746,
      "Ġdefinition": 7747,
      "Ut": 7748,
      "decor": 7749,
      "ĠScore": 7750,
      "ëĲ": 7751,
      "Ġvariance": 7752,
      "ĠPyQt": 7753,
      "ĠBook": 7754,
      "Ġtax": 7755,
      "ĠEdge": 7756,
      "Ġ\"%": 7757,
      "ĠCore": 7758,
      "Ġmoving": 7759,
      "ĠnÃ£o": 7760,
      "rowth": 7761,
      "Ġappear": 7762,
      "ongs": 7763,
      "One": 7764,
      "pell": 7765,
      "ĠChange": 7766,
      "component": 7767,
      "extension": 7768,
      "cuts": 7769,
      "Ġfactory": 7770,
      "çĻ": 7771,
      "heap": 7772,
      "From": 7773,
      "Ġrepeated": 7774,
      "Ġ------------------------------------------------------------------------": 7775,
      "Ġquality": 7776,
      "Ġä½¿çĶ¨": 7777,
      "met": 7778,
      "ĠDefin": 7779,
      "Ġcurve": 7780,
      "Testing": 7781,
      "Ġapps": 7782,
      "ruit": 7783,
      "Widgets": 7784,
      "ayes": 7785,
      "urses": 7786,
      "åı·": 7787,
      "Ġnltk": 7788,
      "ÑĪÐ¸": 7789,
      "ĠThread": 7790,
      "ris": 7791,
      "attempts": 7792,
      "è¿Ľ": 7793,
      "LATE": 7794,
      "agraph": 7795,
      "OFError": 7796,
      "Ġoccurs": 7797,
      "free": 7798,
      "inalg": 7799,
      "ji": 7800,
      "ç«": 7801,
      "Processor": 7802,
      "íĦ°": 7803,
      "slice": 7804,
      "ĠYAML": 7805,
      "Fetch": 7806,
      "ominator": 7807,
      "Ġintervals": 7808,
      "Ġtransition": 7809,
      "aving": 7810,
      "Ġlock": 7811,
      "excel": 7812,
      "sigma": 7813,
      "Mode": 7814,
      "ustr": 7815,
      "Ġcoefficients": 7816,
      "GA": 7817,
      "ĠInteger": 7818,
      "Users": 7819,
      "Ġgl": 7820,
      "ĠMNIST": 7821,
      "Ġshutil": 7822,
      "retries": 7823,
      "Ġvirtual": 7824,
      "Ġcms": 7825,
      "Enum": 7826,
      "special": 7827,
      "[:-": 7828,
      "served": 7829,
      "clo": 7830,
      "cycle": 7831,
      "dp": 7832,
      "inner": 7833,
      "ĠScrapy": 7834,
      "thing": 7835,
      "Ġstderr": 7836,
      "Ġpatient": 7837,
      "pas": 7838,
      "LT": 7839,
      "Method": 7840,
      ":,": 7841,
      "Ñī": 7842,
      "uns": 7843,
      "():.": 7844,
      "eq": 7845,
      "âĢĵ": 7846,
      "Ġcm": 7847,
      "Ġreq": 7848,
      "ĠOb": 7849,
      "tract": 7850,
      "documented": 7851,
      "Er": 7852,
      "VICE": 7853,
      "ciÃ³n": 7854,
      "cording": 7855,
      "Ġwebsite": 7856,
      "sell": 7857,
      "ĠPredict": 7858,
      "ĠAS": 7859,
      "¬¸": 7860,
      "Ġìŀħëł¥": 7861,
      "Ġdecision": 7862,
      "DEN": 7863,
      "randn": 7864,
      "written": 7865,
      "éĽ": 7866,
      "elihood": 7867,
      "atural": 7868,
      "Evalu": 7869,
      "]]]": 7870,
      "ĠÏ": 7871,
      "Ġ...]": 7872,
      "Ġdeployment": 7873,
      "è½½": 7874,
      "Ġlogout": 7875,
      "Ġjobs": 7876,
      "straint": 7877,
      "Ġslot": 7878,
      "Ãª": 7879,
      "Ġretrieval": 7880,
      "Ġentered": 7881,
      ")],": 7882,
      "ĠDynamic": 7883,
      "CODE": 7884,
      "exe": 7885,
      "ico": 7886,
      "Ġserializers": 7887,
      "ä»£": 7888,
      "ĠSequential": 7889,
      "ĠTeam": 7890,
      "([[": 7891,
      "ĠRel": 7892,
      "LETE": 7893,
      "Ġbranch": 7894,
      "Ġcomb": 7895,
      "ĠMean": 7896,
      "ĠNotImplementedError": 7897,
      "Grid": 7898,
      "Ġurls": 7899,
      "Ġswitch": 7900,
      "TEXT": 7901,
      "Results": 7902,
      "Edit": 7903,
      "ìĬ¤íĬ¸": 7904,
      "vertices": 7905,
      "cells": 7906,
      "ulus": 7907,
      "Ġmatched": 7908,
      "gorithms": 7909,
      "Ġservices": 7910,
      "...\\": 7911,
      "Ġweighted": 7912,
      "Ġblack": 7913,
      "Ġencode": 7914,
      "precision": 7915,
      "soup": 7916,
      "Regression": 7917,
      "START": 7918,
      "uclide": 7919,
      "Ġinner": 7920,
      "phase": 7921,
      "Ġparallel": 7922,
      "ĠPRO": 7923,
      "pip": 7924,
      "Ġrecommend": 7925,
      "Ġexchange": 7926,
      "Ġlarger": 7927,
      "Gui": 7928,
      "chema": 7929,
      "Ġdrawing": 7930,
      "Http": 7931,
      "ĠTransform": 7932,
      "ĠTimeoutException": 7933,
      "Ġconsecutive": 7934,
      "bounds": 7935,
      "Price": 7936,
      "criminator": 7937,
      "Ġmarket": 7938,
      "Ġlocations": 7939,
      "Ġglob": 7940,
      "Ġdefinitions": 7941,
      "Ġapprox": 7942,
      "Ġcrop": 7943,
      "circle": 7944,
      "TIONS": 7945,
      "management": 7946,
      "TRAIN": 7947,
      "ised": 7948,
      "ONE": 7949,
      "goal": 7950,
      "ferred": 7951,
      "arios": 7952,
      "orders": 7953,
      "Link": 7954,
      "ĠStop": 7955,
      "ĠProfile": 7956,
      "Ġtake": 7957,
      "ypes": 7958,
      "Ġ:]": 7959,
      "Ġgood": 7960,
      "Ġindexing": 7961,
      "è·¯å¾Ħ": 7962,
      "neighbor": 7963,
      "inspace": 7964,
      "IC": 7965,
      "tweets": 7966,
      "rm": 7967,
      "Ġformula": 7968,
      "MQ": 7969,
      "VALID": 7970,
      "attributes": 7971,
      "ĠLogging": 7972,
      "Ġclosing": 7973,
      "Updated": 7974,
      "Ġarithmetic": 7975,
      "Welcome": 7976,
      "ĠProgram": 7977,
      "ixture": 7978,
      "Ġgender": 7979,
      "cf": 7980,
      "extensions": 7981,
      "Ġdensity": 7982,
      "Ġannotation": 7983,
      "ĠAppro": 7984,
      "Ġappears": 7985,
      "ora": 7986,
      "Ġmarkers": 7987,
      "MIT": 7988,
      "Ġ{})": 7989,
      "degree": 7990,
      "ĠTCP": 7991,
      "examples": 7992,
      "simple": 7993,
      "frequ": 7994,
      "Ġearly": 7995,
      "ç¡": 7996,
      "áº": 7997,
      "):.": 7998,
      "Ġabort": 7999,
      "Ġcha": 8000,
      "ĠConsider": 8001,
      "rics": 8002,
      "REQUEST": 8003,
      "tty": 8004,
      "Ġextracts": 8005,
      "partment": 8006,
      "Ġasyncio": 8007,
      "RC": 8008,
      "Ġpeak": 8009,
      "aciÃ³n": 8010,
      "Ġreached": 8011,
      "dictionary": 8012,
      "ĠPyTorch": 8013,
      "ught": 8014,
      "\"ðŁĵ": 8015,
      "ĠTwo": 8016,
      "Internal": 8017,
      "linalg": 8018,
      "ĠSignal": 8019,
      "bye": 8020,
      "uclidean": 8021,
      "ĠìĤ¬": 8022,
      "geometry": 8023,
      "appro": 8024,
      "chart": 8025,
      "crypt": 8026,
      "æĽ": 8027,
      "ĠÐ½Ð°": 8028,
      "Įè¯ģ": 8029,
      "scan": 8030,
      "redit": 8031,
      "rib": 8032,
      "intext": 8033,
      "Ġmotor": 8034,
      "Ð»Ð°": 8035,
      "ony": 8036,
      "åŁ": 8037,
      "ĠEvaluation": 8038,
      "Ġsym": 8039,
      "LAN": 8040,
      "Ġ([": 8041,
      "Ġattach": 8042,
      "TR": 8043,
      "Ġbegin": 8044,
      "Ġlimits": 8045,
      "Download": 8046,
      "~~": 8047,
      "()):": 8048,
      "endpoint": 8049,
      "Ab": 8050,
      "Ġinsertion": 8051,
      "Ġclock": 8052,
      "Ġtimedelta": 8053,
      "Ġrelationships": 8054,
      "OM": 8055,
      "modified": 8056,
      "Property": 8057,
      "Ġsmallest": 8058,
      "Te": 8059,
      "semble": 8060,
      "Select": 8061,
      "éĢī": 8062,
      "Ġna": 8063,
      "Ġfore": 8064,
      "expression": 8065,
      "Ġexistence": 8066,
      "å®Į": 8067,
      "Ġbirth": 8068,
      "ĠSuppress": 8069,
      "Ġowner": 8070,
      "Ġquit": 8071,
      "Ġcorpus": 8072,
      "Ġstartup": 8073,
      "Ġins": 8074,
      "ĠVisualize": 8075,
      "before": 8076,
      "good": 8077,
      ")).": 8078,
      "otstra": 8079,
      "Ġphoto": 8080,
      "savefig": 8081,
      "Ġmargin": 8082,
      "done": 8083,
      "categorical": 8084,
      "ĠWeight": 8085,
      "guess": 8086,
      "Ġchrome": 8087,
      "Ġsi": 8088,
      "Hub": 8089,
      "Formatter": 8090,
      "Press": 8091,
      "Ð¾Ð»ÑĮ": 8092,
      "()[": 8093,
      "embeddings": 8094,
      "Boolean": 8095,
      "ĠLoading": 8096,
      "Ġinte": 8097,
      "linspace": 8098,
      "strument": 8099,
      "Ġranges": 8100,
      "unded": 8101,
      "Ġsin": 8102,
      "Ġobs": 8103,
      "Unsupported": 8104,
      "Ġextens": 8105,
      "GL": 8106,
      "weather": 8107,
      "Ġreversed": 8108,
      "Rece": 8109,
      "bre": 8110,
      "([])": 8111,
      "Ġuma": 8112,
      "LIST": 8113,
      "åĬ¡": 8114,
      "ĠPygame": 8115,
      "elf": 8116,
      "ares": 8117,
      "combined": 8118,
      "uptools": 8119,
      "Row": 8120,
      "small": 8121,
      "Ġtraceback": 8122,
      "Ġopp": 8123,
      "Ġsqrt": 8124,
      "typ": 8125,
      "ĠShould": 8126,
      "]\")": 8127,
      "ĠROS": 8128,
      "Ġrespect": 8129,
      "Ġdependency": 8130,
      "ç¼": 8131,
      "sound": 8132,
      "éģ": 8133,
      "ycle": 8134,
      "venue": 8135,
      "ĠAlways": 8136,
      "ĠMerge": 8137,
      "ĠNUM": 8138,
      "Represents": 8139,
      "Spec": 8140,
      "station": 8141,
      "Ġâī": 8142,
      "nome": 8143,
      "ĠGenerates": 8144,
      "Ġ\"../": 8145,
      "ceeded": 8146,
      "Ġnome": 8147,
      "Ġdynamically": 8148,
      "Ġnotification": 8149,
      "asis": 8150,
      "Mark": 8151,
      "umeric": 8152,
      "ValidationError": 8153,
      "Ġdev": 8154,
      "latest": 8155,
      "Ġenum": 8156,
      "Ġpeople": 8157,
      "ĠUTF": 8158,
      "Close": 8159,
      "ĠAtt": 8160,
      "Jo": 8161,
      "Ġmac": 8162,
      "ĠAbstract": 8163,
      "today": 8164,
      "Ġdecay": 8165,
      "heme": 8166,
      "Ġpercent": 8167,
      "export": 8168,
      "åºĶ": 8169,
      "FIX": 8170,
      "(_": 8171,
      "ĠHome": 8172,
      "ĠUseful": 8173,
      "ĠDet": 8174,
      "ĠContent": 8175,
      "house": 8176,
      "ĠÃ©": 8177,
      "ĠSELECT": 8178,
      "itation": 8179,
      "comments": 8180,
      "Ġbackup": 8181,
      "ATIONS": 8182,
      "Ġdivisor": 8183,
      "Ġshowing": 8184,
      "CLAS": 8185,
      "ĊĠĠĠĠĠĠĠĠĠĠĠĠĠĠĠĠĠĠĠĠĠĠĠĠĠ": 8186,
      "Ġconfirmation": 8187,
      "´ë": 8188,
      "Scaler": 8189,
      "Ġscenario": 8190,
      "Ġsimplified": 8191,
      "ĠOther": 8192,
      "ysics": 8193,
      "heel": 8194,
      "Ġuna": 8195,
      "ĠðŁ": 8196,
      "Ġmotion": 8197,
      "SPE": 8198,
      "Ġcandidates": 8199,
      "front": 8200,
      "Ġ'/": 8201,
      "capacity": 8202,
      "ĠCategory": 8203,
      "Print": 8204,
      "issue": 8205,
      "Tri": 8206,
      "æĮģ": 8207,
      "QUI": 8208,
      "pab": 8209,
      "vertex": 8210,
      "FOL": 8211,
      "portion": 8212,
      "ĠPack": 8213,
      "ĠAssertionError": 8214,
      "NAL": 8215,
      "simulation": 8216,
      "addle": 8217,
      "Ġcontents": 8218,
      "Redirect": 8219,
      "GER": 8220,
      "ĠDI": 8221,
      "ĠConnectionError": 8222,
      "ĠImpro": 8223,
      "Length": 8224,
      "Ġstand": 8225,
      "mix": 8226,
      "activation": 8227,
      "Ġfoc": 8228,
      "Ġlif": 8229,
      "Ġao": 8230,
      "Ġcfg": 8231,
      "è¯·æ±Ĥ": 8232,
      "ĠAccess": 8233,
      "æī§è¡Į": 8234,
      "oter": 8235,
      "mongo": 8236,
      "Your": 8237,
      "'re": 8238,
      "Ġtrun": 8239,
      "Ġlibraries": 8240,
      "Ġones": 8241,
      "ĠĊĠĠĠĠĠĠĠĠĠĠĠĠĠĠĠĠĠĠĠ": 8242,
      "HA": 8243,
      "wave": 8244,
      "Ġsound": 8245,
      "keywords": 8246,
      "='%(": 8247,
      "ĠSm": 8248,
      "Ġclassify": 8249,
      "softmax": 8250,
      "ÐµÐ´": 8251,
      "vest": 8252,
      "Ġrep": 8253,
      "Ĥæķ°": 8254,
      "rec": 8255,
      "Directory": 8256,
      "ĠClose": 8257,
      "standard": 8258,
      "Ġbel": 8259,
      "Ġencrypted": 8260,
      "Ġ-------------------------------": 8261,
      "ĠAttempt": 8262,
      "orth": 8263,
      "Ġrecipient": 8264,
      "concat": 8265,
      "Ġche": 8266,
      "Ġgreeting": 8267,
      "ĠRegression": 8268,
      "oting": 8269,
      "Account": 8270,
      "ĠVideo": 8271,
      "Ġshapes": 8272,
      "OI": 8273,
      "kes": 8274,
      "idity": 8275,
      "ANCE": 8276,
      "With": 8277,
      "}),": 8278,
      "çĶŁæĪĲ": 8279,
      "dimension": 8280,
      "male": 8281,
      "å®¹": 8282,
      "Ġdeviation": 8283,
      "Ġinstallation": 8284,
      "Ġnaming": 8285,
      "Of": 8286,
      "Ġpriority": 8287,
      "ggers": 8288,
      "Ġtkinter": 8289,
      "}</": 8290,
      "even": 8291,
      "review": 8292,
      "Ġboolean": 8293,
      "Ġaliases": 8294,
      "ablish": 8295,
      "Ġsuc": 8296,
      "BATCH": 8297,
      "Rect": 8298,
      "unity": 8299,
      "icks": 8300,
      "utc": 8301,
      "lis": 8302,
      "cn": 8303,
      "Ġprojects": 8304,
      "ĠFore": 8305,
      "Style": 8306,
      "star": 8307,
      "Ð¾ÑĤ": 8308,
      "mig": 8309,
      "Ġmiddleware": 8310,
      "ĠPrediction": 8311,
      "Ġol": 8312,
      "å°ı": 8313,
      "Ġdpi": 8314,
      "Match": 8315,
      "APP": 8316,
      "reenshot": 8317,
      "éĻ¤": 8318,
      "'{": 8319,
      "predicted": 8320,
      "Ġcallbacks": 8321,
      "rs": 8322,
      "ĠEngine": 8323,
      "Ġenhance": 8324,
      "Ġdesi": 8325,
      "Ġorganization": 8326,
      "utoff": 8327,
      "places": 8328,
      "STATE": 8329,
      "wall": 8330,
      "Ġsyntax": 8331,
      "timer": 8332,
      "ĠRecurs": 8333,
      "ĠTEXT": 8334,
      "testing": 8335,
      "Ġorders": 8336,
      "Ġinside": 8337,
      "éĿ¢": 8338,
      "ĠHigh": 8339,
      "WSGI": 8340,
      "dit": 8341,
      "Ġsat": 8342,
      "resources": 8343,
      "BGR": 8344,
      "Ġsynthetic": 8345,
      "ulum": 8346,
      "ales": 8347,
      "chrome": 8348,
      "Ð½Ð¸": 8349,
      "TRI": 8350,
      "ĠUnicodeDecodeError": 8351,
      "Ġpredefined": 8352,
      "lying": 8353,
      "Ġtexts": 8354,
      "æĪĲåĬŁ": 8355,
      "failed": 8356,
      "Ġexponent": 8357,
      "phere": 8358,
      "terms": 8359,
      "anded": 8360,
      "mployee": 8361,
      "resolution": 8362,
      "Ð¾Ð±": 8363,
      "inder": 8364,
      "ĠFlatten": 8365,
      "£Ģ": 8366,
      "photo": 8367,
      "Ġdemonstrating": 8368,
      "creen": 8369,
      "verter": 8370,
      "emory": 8371,
      "double": 8372,
      "minutes": 8373,
      "Ġbooks": 8374,
      "BACK": 8375,
      "dialog": 8376,
      "insensitive": 8377,
      "logout": 8378,
      "Ġpanel": 8379,
      "ĠMatch": 8380,
      "seng": 8381,
      "Ġhostname": 8382,
      "DELAY": 8383,
      "Generating": 8384,
      "LINE": 8385,
      "Ġassigned": 8386,
      "Ġpivot": 8387,
      "Ġfour": 8388,
      "Sequence": 8389,
      "æīĢæľī": 8390,
      "uzzle": 8391,
      "edy": 8392,
      "URATION": 8393,
      "qdm": 8394,
      "construct": 8395,
      "ĠPrevent": 8396,
      "=\"#": 8397,
      "stand": 8398,
      "Ġgrade": 8399,
      "cleanup": 8400,
      "AF": 8401,
      "ĠÑĥ": 8402,
      "ye": 8403,
      "Ġdouble": 8404,
      "Ġscalar": 8405,
      "çĶ¨äºİ": 8406,
      "detect": 8407,
      "Ġtiming": 8408,
      "Ġpersonal": 8409,
      "ĠRight": 8410,
      "members": 8411,
      "Ġflex": 8412,
      "ĠCho": 8413,
      "\\.": 8414,
      "Ġfac": 8415,
      "worker": 8416,
      "Ġconstraint": 8417,
      "Ġdesired": 8418,
      "Ġ${": 8419,
      "Ġterminal": 8420,
      "ients": 8421,
      "åĲ«": 8422,
      "Ġexib": 8423,
      "ľĵ": 8424,
      "Ġfactors": 8425,
      "ç´ł": 8426,
      "Ġtensors": 8427,
      "wt": 8428,
      "SCREEN": 8429,
      "major": 8430,
      "åĪ¶": 8431,
      "ĠÑĩÐ¸Ñģ": 8432,
      "rocessing": 8433,
      "ĠCreating": 8434,
      "MY": 8435,
      "Pub": 8436,
      "normalize": 8437,
      "oom": 8438,
      "ĠExtracts": 8439,
      "ridge": 8440,
      "moved": 8441,
      "roids": 8442,
      "Ġraised": 8443,
      "wav": 8444,
      "Ġpartition": 8445,
      "resolve": 8446,
      "ĠKeep": 8447,
      "ĠReport": 8448,
      "Ġlaunch": 8449,
      "Ġflat": 8450,
      "XPATH": 8451,
      "measure": 8452,
      "pygame": 8453,
      "Ġcoin": 8454,
      "}')": 8455,
      "]+": 8456,
      "stage": 8457,
      "aster": 8458,
      "recursive": 8459,
      "ographic": 8460,
      "Ġmovies": 8461,
      "ĵįä½ľ": 8462,
      "Parameter": 8463,
      "Clean": 8464,
      "UB": 8465,
      "Ġstage": 8466,
      "ilation": 8467,
      "Ġyet": 8468,
      "ante": 8469,
      "Analyzer": 8470,
      "named": 8471,
      "conditions": 8472,
      "Ġwidgets": 8473,
      "addWidget": 8474,
      "xes": 8475,
      "rong": 8476,
      "css": 8477,
      "'.\")": 8478,
      "alone": 8479,
      "etic": 8480,
      "dic": 8481,
      "icture": 8482,
      "Ġalias": 8483,
      "STAT": 8484,
      "Ġcho": 8485,
      "LEFT": 8486,
      "Ġæī": 8487,
      "Average": 8488,
      "Ġsl": 8489,
      "ä¿ĿåŃĺ": 8490,
      "Control": 8491,
      "ĠProvides": 8492,
      "inue": 8493,
      "atar": 8494,
      "ITY": 8495,
      "origin": 8496,
      "Convert": 8497,
      "Ġinteractions": 8498,
      "factory": 8499,
      "detection": 8500,
      "ĠFire": 8501,
      "sock": 8502,
      "osite": 8503,
      "Ġobservation": 8504,
      "ĊĠĠĠĠĠĠĠĠĠĠĠĠĠĠĠĠĠĠĠĠĠĠĠĠĠĠĠĠĠĠĠĠĠĠĠ": 8505,
      "Ĺãģ": 8506,
      "warn": 8507,
      "Ġdecorator": 8508,
      "RIGHT": 8509,
      "Ġhit": 8510,
      "Ġstripped": 8511,
      "Ġneur": 8512,
      "ç»Ł": 8513,
      "Ġreceive": 8514,
      "Book": 8515,
      "Ġbr": 8516,
      "udget": 8517,
      "Ġvalidates": 8518,
      "ĠÐ±": 8519,
      "Template": 8520,
      "/\")": 8521,
      "Namespace": 8522,
      "Ġseg": 8523,
      "¸ë": 8524,
      "ĠNavig": 8525,
      "ung": 8526,
      "crease": 8527,
      "è¯į": 8528,
      "urable": 8529,
      "Ġloads": 8530,
      "song": 8531,
      "}'.": 8532,
      "Ġconfusion": 8533,
      "Ġdecoder": 8534,
      "cion": 8535,
      "}}": 8536,
      "angular": 8537,
      "Ġmagnitude": 8538,
      "students": 8539,
      "Ġsuitable": 8540,
      "ometric": 8541,
      "ivative": 8542,
      "éĢļ": 8543,
      "Ġshows": 8544,
      "Ġdirections": 8545,
      "Analysis": 8546,
      "Po": 8547,
      "divis": 8548,
      "subprocess": 8549,
      "pan": 8550,
      "lability": 8551,
      "ducer": 8552,
      "deg": 8553,
      "Ġzeros": 8554,
      "Ġlisten": 8555,
      "tables": 8556,
      "Ġsanit": 8557,
      "Ġttk": 8558,
      "FONT": 8559,
      "ita": 8560,
      "Ġ==============================": 8561,
      "Ġalt": 8562,
      "Ġbatches": 8563,
      "ĠIntegration": 8564,
      "nx": 8565,
      "Ġbro": 8566,
      "Ġcompliance": 8567,
      "aching": 8568,
      "Ġcorrelation": 8569,
      "Ġkeyboard": 8570,
      "ìĸ": 8571,
      "Ġgeometry": 8572,
      "ĠDistance": 8573,
      "\"/": 8574,
      "verify": 8575,
      "ensure": 8576,
      "Ġsticky": 8577,
      "Ġhandled": 8578,
      "Ġforec": 8579,
      "Ġlearn": 8580,
      "ĠRequired": 8581,
      "Ġapplies": 8582,
      "ills": 8583,
      "Ġer": 8584,
      "ĠJo": 8585,
      "anti": 8586,
      "Ġå®": 8587,
      "demo": 8588,
      "ees": 8589,
      "glob": 8590,
      "OD": 8591,
      "ificate": 8592,
      "Ġregularization": 8593,
      "coord": 8594,
      "Render": 8595,
      "finite": 8596,
      "hemat": 8597,
      "umbn": 8598,
      "Ġefficiency": 8599,
      "ĠJava": 8600,
      "ĠASCII": 8601,
      "ĠPCA": 8602,
      "Ġcapt": 8603,
      "ĠUsed": 8604,
      "TreeNode": 8605,
      "æ¼Ķç¤º": 8606,
      "Go": 8607,
      "WINDOW": 8608,
      ")},": 8609,
      "ä»İ": 8610,
      "ľĢ": 8611,
      "alent": 8612,
      "cause": 8613,
      "Ġwinner": 8614,
      "fox": 8615,
      "Ġrecogn": 8616,
      "Ġquote": 8617,
      "ĠWebDriverWait": 8618,
      "subset": 8619,
      "Ġaccording": 8620,
      "MSE": 8621,
      "showerror": 8622,
      "rules": 8623,
      "repe": 8624,
      "Ġresidual": 8625,
      "ourse": 8626,
      "è®¾": 8627,
      "Ġvalidator": 8628,
      "reet": 8629,
      "Ġpipe": 8630,
      "åŃĺåľ¨": 8631,
      "ainer": 8632,
      "ĠNeural": 8633,
      "Est": 8634,
      "ivation": 8635,
      "estyle": 8636,
      "isters": 8637,
      "otstrap": 8638,
      "mis": 8639,
      "Ġmen": 8640,
      "olver": 8641,
      "romos": 8642,
      "Ġinterpolation": 8643,
      "ä»¥": 8644,
      "(\"<": 8645,
      "ĠCalculator": 8646,
      "yaml": 8647,
      "ailability": 8648,
      "Ġbusiness": 8649,
      "è±": 8650,
      "ulse": 8651,
      "nombre": 8652,
      "Ð°Ð½Ð¸": 8653,
      "Ġmult": 8654,
      "payment": 8655,
      "Ġserve": 8656,
      "Ġenemy": 8657,
      "pur": 8658,
      "iments": 8659,
      "clock": 8660,
      "nowled": 8661,
      "ĠNon": 8662,
      "owel": 8663,
      "Ðŀ": 8664,
      "ìĬµ": 8665,
      "ĠMatplotlib": 8666,
      "Ġreply": 8667,
      "()),": 8668,
      "RAME": 8669,
      "âľħ": 8670,
      "Ġsure": 8671,
      "Ġexpressions": 8672,
      "Ġstores": 8673,
      "accept": 8674,
      "food": 8675,
      "Word": 8676,
      "åĮħ": 8677,
      "Ġgradients": 8678,
      "ĠCel": 8679,
      "vey": 8680,
      "æī¾": 8681,
      "ica": 8682,
      "CHAN": 8683,
      "->": 8684,
      "Ġcriterion": 8685,
      "Ġdeque": 8686,
      "ĠCopy": 8687,
      "('.": 8688,
      "ĠCompare": 8689,
      "semb": 8690,
      "Ġratings": 8691,
      "ĠComprehensive": 8692,
      "Ġidentify": 8693,
      "Ġtransactions": 8694,
      "backward": 8695,
      "rapper": 8696,
      "destination": 8697,
      "reason": 8698,
      "_(": 8699,
      "abstractmethod": 8700,
      "parsed": 8701,
      "Ġmeasurement": 8702,
      "Ġtechn": 8703,
      "Pipeline": 8704,
      "ĠDropout": 8705,
      "disable": 8706,
      "oku": 8707,
      "ĠÑĦ": 8708,
      "agram": 8709,
      "pixels": 8710,
      "ç¨ĭåºı": 8711,
      "Ġcut": 8712,
      "gene": 8713,
      "ĠReference": 8714,
      "lets": 8715,
      "reply": 8716,
      "Ġforecast": 8717,
      "ĠPrice": 8718,
      "çİ°": 8719,
      "Queue": 8720,
      "æ¬¡": 8721,
      "Ġenhanced": 8722,
      "Epoch": 8723,
      "ĠCannot": 8724,
      "Port": 8725,
      "contains": 8726,
      "ìĦ±": 8727,
      "ename": 8728,
      "Cor": 8729,
      "push": 8730,
      "Ġattrs": 8731,
      "idad": 8732,
      "riends": 8733,
      "æĪĸ": 8734,
      "Ġmechan": 8735,
      "pread": 8736,
      "TARGET": 8737,
      "corpus": 8738,
      "ĠEOFError": 8739,
      "YYYY": 8740,
      "èµ": 8741,
      "rotation": 8742,
      "Gra": 8743,
      "BUT": 8744,
      "ELS": 8745,
      "plus": 8746,
      "threads": 8747,
      "Ġstopped": 8748,
      "ina": 8749,
      "recip": 8750,
      "Params": 8751,
      "Writer": 8752,
      "Ġhighest": 8753,
      "multi": 8754,
      "Ġelapsed": 8755,
      "ĠLeft": 8756,
      "ĠsetUp": 8757,
      "elegram": 8758,
      "CF": 8759,
      "ê·": 8760,
      "Ð¸ÑĤ": 8761,
      "packet": 8762,
      "cles": 8763,
      "udy": 8764,
      "Topic": 8765,
      "ĠFI": 8766,
      "many": 8767,
      "Ġdescending": 8768,
      "MessageBox": 8769,
      "assertIs": 8770,
      "Ġjoint": 8771,
      "ĠPop": 8772,
      "classification": 8773,
      "rag": 8774,
      "Ġarchive": 8775,
      "configs": 8776,
      "increment": 8777,
      "Ġhyp": 8778,
      "Ġstill": 8779,
      "rstrip": 8780,
      "Mixin": 8781,
      "Ġchanged": 8782,
      "props": 8783,
      "ĠSeries": 8784,
      "ĠRot": 8785,
      "Ġsqlalchemy": 8786,
      "Down": 8787,
      "Ġëª": 8788,
      "ĶĦ": 8789,
      "WN": 8790,
      "Ġcriteria": 8791,
      "Ġcoord": 8792,
      "Ġdegree": 8793,
      "ModelAdmin": 8794,
      "ĠON": 8795,
      "ĠRow": 8796,
      "Ð¾Ð½": 8797,
      "ĠRece": 8798,
      "branch": 8799,
      "Retri": 8800,
      "Ġdisplayed": 8801,
      "ĠUnexpected": 8802,
      "tail": 8803,
      "ĠRate": 8804,
      "relative": 8805,
      "æį¢": 8806,
      "ðŁĵ": 8807,
      "èĢ": 8808,
      "half": 8809,
      "Ġcompletion": 8810,
      "ĠFields": 8811,
      "Ġidentity": 8812,
      "dense": 8813,
      "è¯»": 8814,
      "Ġreferences": 8815,
      "Vec": 8816,
      "servations": 8817,
      "cu": 8818,
      "Ġtokenizer": 8819,
      "ĠPreprocess": 8820,
      "fidf": 8821,
      "Sy": 8822,
      "ĠApache": 8823,
      "Ġvalidators": 8824,
      "ĠìĦ": 8825,
      "ä¸Ĭ": 8826,
      "Ġcleaner": 8827,
      "ĠLOG": 8828,
      "Options": 8829,
      "Ġrecursive": 8830,
      "Ġorientation": 8831,
      "Ġintegrity": 8832,
      "Ġclients": 8833,
      "__.": 8834,
      "Ġpose": 8835,
      "ĠProblem": 8836,
      "Ġscheduler": 8837,
      "ļĢ": 8838,
      "åħ³": 8839,
      "padding": 8840,
      "ny": 8841,
      "percentage": 8842,
      "ĠEnt": 8843,
      "aling": 8844,
      "processes": 8845,
      "Ġanchor": 8846,
      "COLORS": 8847,
      "LES": 8848,
      "Ġtimer": 8849,
      "></": 8850,
      "ĠOverride": 8851,
      "Ġmedian": 8852,
      "posed": 8853,
      "ĠTEST": 8854,
      "kin": 8855,
      "ç´¢": 8856,
      "æĺ¯åĲ¦": 8857,
      "ils": 8858,
      "templates": 8859,
      "à¹": 8860,
      "romosome": 8861,
      "''": 8862,
      "TextField": 8863,
      "gui": 8864,
      "rial": 8865,
      "Ġmaterial": 8866,
      "Ġìĭľ": 8867,
      "cascade": 8868,
      "mul": 8869,
      "Ġke": 8870,
      "strategy": 8871,
      "THRESHOLD": 8872,
      "ĠAlternative": 8873,
      "Ð²Ð°": 8874,
      "Float": 8875,
      "Ġscaled": 8876,
      "Ġassume": 8877,
      "uck": 8878,
      "DIRE": 8879,
      "rites": 8880,
      "Ġmappings": 8881,
      "ĠRecord": 8882,
      "Ġwhite": 8883,
      "Ġ==============================================================================": 8884,
      "Ġpat": 8885,
      "del": 8886,
      "Ġresize": 8887,
      "Such": 8888,
      "Ġaut": 8889,
      "flip": 8890,
      "ĠNaN": 8891,
      "ĠGradient": 8892,
      "scape": 8893,
      "DOM": 8894,
      "Ġabstract": 8895,
      "Ġpagin": 8896,
      "DEX": 8897,
      "ĠTreeNode": 8898,
      "quote": 8899,
      "afka": 8900,
      "Ġlongitude": 8901,
      "ĠAlgorithm": 8902,
      "Ġpi": 8903,
      "Ġio": 8904,
      "cia": 8905,
      "bbox": 8906,
      "handlers": 8907,
      "åŃĲ": 8908,
      "CLI": 8909,
      "ĠExport": 8910,
      "Ġparticip": 8911,
      "ĠvÃ¡l": 8912,
      "Ġtrajectory": 8913,
      "phi": 8914,
      "tur": 8915,
      "sq": 8916,
      "zilla": 8917,
      "ever": 8918,
      "Ob": 8919,
      "ĠPythonic": 8920,
      "TypeError": 8921,
      "ena": 8922,
      ">{": 8923,
      "?\",": 8924,
      "Ġmiddle": 8925,
      "achine": 8926,
      "big": 8927,
      "Ġuppercase": 8928,
      "WT": 8929,
      "ĠçļĦ": 8930,
      "Ġdistributed": 8931,
      "(\\": 8932,
      "bp": 8933,
      "remaining": 8934,
      "æķĪ": 8935,
      "Ġmp": 8936,
      "Ref": 8937,
      "Ġrecognition": 8938,
      "æĹ¶éĹ´": 8939,
      "Many": 8940,
      "Ġbi": 8941,
      "ĠDynam": 8942,
      "gender": 8943,
      "=\"/": 8944,
      "PL": 8945,
      "Ġaccessible": 8946,
      "confidence": 8947,
      "letters": 8948,
      "Ġcontours": 8949,
      "Ġorchestrates": 8950,
      "effect": 8951,
      "Ġstructures": 8952,
      "ramid": 8953,
      "ĠÑģÑĤ": 8954,
      "Ġmultiplication": 8955,
      "Ġsubstring": 8956,
      "æľº": 8957,
      "Ġcumulative": 8958,
      "Pack": 8959,
      "ĠBGR": 8960,
      "Ġtqdm": 8961,
      "Ġadjacent": 8962,
      "ĠBest": 8963,
      "Ġinstruction": 8964,
      "Ġta": 8965,
      "Ġinstructions": 8966,
      "ìĦľ": 8967,
      "Ġeasy": 8968,
      "Change": 8969,
      "alty": 8970,
      "ĠPYTHON": 8971,
      "Ġcoefficient": 8972,
      "celeration": 8973,
      "ĠComputes": 8974,
      "Ġuni": 8975,
      "curve": 8976,
      "BER": 8977,
      "allenge": 8978,
      "ĠÐ¿ÑĢ": 8979,
      "turtle": 8980,
      "Gen": 8981,
      "ĠCOL": 8982,
      "Attribute": 8983,
      "which": 8984,
      "birth": 8985,
      "Ġinterpre": 8986,
      "Ġtransformed": 8987,
      ":<": 8988,
      "DataError": 8989,
      "Ġinterest": 8990,
      "Environment": 8991,
      "è±¡": 8992,
      "Ġou": 8993,
      "adjust": 8994,
      "fake": 8995,
      "party": 8996,
      "uk": 8997,
      "ĊĠĠĠĠĠĠĠĠĠĠĠĠĠĠĠĠĠĠĠĠĠĠĠĠĠĠ": 8998,
      "Authentication": 8999,
      "ĠLayer": 9000,
      "onus": 9001,
      "UC": 9002,
      "Ġbuy": 9003,
      "median": 9004,
      "Ġcontract": 9005,
      "Ġcorner": 9006,
      "Ġinitializes": 9007,
      "inst": 9008,
      "Ġassumed": 9009,
      "Ġast": 9010,
      "typically": 9011,
      "movies": 9012,
      "ĠDemo": 9013,
      "fitness": 9014,
      "Ġreviews": 9015,
      "Ġfrequent": 9016,
      "ĠQuant": 9017,
      "Default": 9018,
      "inches": 9019,
      "ĠÐ·Ð°": 9020,
      "Ġtakes": 9021,
      "TON": 9022,
      "activity": 9023,
      "ÐŁ": 9024,
      "locations": 9025,
      "stacle": 9026,
      "loyees": 9027,
      "Ġhigher": 9028,
      "distances": 9029,
      "NAMES": 9030,
      "about": 9031,
      "dst": 9032,
      "Ġrunner": 9033,
      "ĠPress": 9034,
      "Device": 9035,
      "licing": 9036,
      "Ġenough": 9037,
      "=\"\")": 9038,
      "Saved": 9039,
      "icio": 9040,
      "covered": 9041,
      "viding": 9042,
      "Engine": 9043,
      ":])": 9044,
      "iteration": 9045,
      "const": 9046,
      "statistics": 9047,
      "ship": 9048,
      "plots": 9049,
      "âĢĶâĢĶâĢĶâĢĶâĢĶâĢĶâĢĶâĢĶ": 9050,
      "dy": 9051,
      "dataframe": 9052,
      "joint": 9053,
      "ĠKEY": 9054,
      "Ġmanages": 9055,
      "Job": 9056,
      "ente": 9057,
      "ĠManager": 9058,
      "COLUM": 9059,
      "Ġfake": 9060,
      "loginfo": 9061,
      "POCH": 9062,
      "æ¸": 9063,
      "Ġworks": 9064,
      "æĵįä½ľ": 9065,
      "employee": 9066,
      "ĠCross": 9067,
      "Ġchars": 9068,
      "Ġmodeling": 9069,
      "OB": 9070,
      "Ġselector": 9071,
      ",))": 9072,
      "ks": 9073,
      "Ġbecause": 9074,
      "Ġmanipulation": 9075,
      "Ġordered": 9076,
      "agem": 9077,
      "similarity": 9078,
      "sius": 9079,
      "Ġcookie": 9080,
      "Ġmodes": 9081,
      "mas": 9082,
      "outer": 9083,
      "pb": 9084,
      "Ġscatter": 9085,
      "Person": 9086,
      "Rew": 9087,
      "sqlite": 9088,
      "ĠSM": 9089,
      "PTION": 9090,
      "ĠAccount": 9091,
      "Ġasset": 9092,
      "Ġ*=": 9093,
      "wx": 9094,
      "ĠnÃºmeros": 9095,
      "Ġtracks": 9096,
      "Encoder": 9097,
      "ĠDecode": 9098,
      "eye": 9099,
      "ini": 9100,
      "Best": 9101,
      "utting": 9102,
      "candidate": 9103,
      "atives": 9104,
      "Ġrepo": 9105,
      ")}\",": 9106,
      "attach": 9107,
      "ĠPattern": 9108,
      "clicked": 9109,
      "Ġdivisible": 9110,
      "EC": 9111,
      "ĠÐ½Ðµ": 9112,
      "owns": 9113,
      "Middleware": 9114,
      "ABC": 9115,
      "isy": 9116,
      "Ġgreen": 9117,
      "ĠSele": 9118,
      "peg": 9119,
      "Over": 9120,
      "Ġretrieved": 9121,
      "Ġtw": 9122,
      "ĠDrop": 9123,
      "Ġsem": 9124,
      "fire": 9125,
      "rozen": 9126,
      "Generate": 9127,
      "Save": 9128,
      "comparison": 9129,
      "Ġuid": 9130,
      "osp": 9131,
      "Ġends": 9132,
      "Ġgt": 9133,
      "aint": 9134,
      "ĠUnit": 9135,
      "ìĿ¸": 9136,
      "Ġ{{": 9137,
      "ĠActive": 9138,
      "Ġregistry": 9139,
      "Ġcleaning": 9140,
      "hs": 9141,
      "attack": 9142,
      "private": 9143,
      "Ð¾Ð²Ð°": 9144,
      "Ġalbum": 9145,
      "Bar": 9146,
      "absolute": 9147,
      "=\",": 9148,
      "ĠPerformance": 9149,
      "gz": 9150,
      "Ġwater": 9151,
      "oma": 9152,
      "Ġcollision": 9153,
      "TEMPLATE": 9154,
      "cvt": 9155,
      "è¾ĵåĩº": 9156,
      "recomm": 9157,
      "\")(": 9158,
      "Ð¾Ð¹": 9159,
      "MD": 9160,
      "ãĤ¹": 9161,
      "éĺ": 9162,
      "\")]": 9163,
      "ĠPos": 9164,
      "Means": 9165,
      "ĠSpecial": 9166,
      "nOperation": 9167,
      "ĠAR": 9168,
      "ĠPi": 9169,
      "Ġcomputer": 9170,
      "mor": 9171,
      "alive": 9172,
      "lasticsearch": 9173,
      "signals": 9174,
      "ĠSci": 9175,
      "åºĵ": 9176,
      "livery": 9177,
      "ĳĭ": 9178,
      "INTERVAL": 9179,
      "ĠROOT": 9180,
      "redirect": 9181,
      "Ġscripts": 9182,
      "FILES": 9183,
      "ĠREADME": 9184,
      "ľì": 9185,
      "false": 9186,
      "curren": 9187,
      "ĠORM": 9188,
      "Ġrecursion": 9189,
      "maps": 9190,
      "listdir": 9191,
      "ĠWebSocket": 9192,
      "Ġreser": 9193,
      "Ġangles": 9194,
      "Ġpredictor": 9195,
      "ĠHttpResponseRedirect": 9196,
      "Ġrecommended": 9197,
      "Last": 9198,
      "ĸī": 9199,
      "Simple": 9200,
      "ĠIs": 9201,
      "shortcuts": 9202,
      "Ġdownloaded": 9203,
      "ĠStructure": 9204,
      "liers": 9205,
      "ĠWorld": 9206,
      "Ġtransl": 9207,
      "ambda": 9208,
      "Ġwarning": 9209,
      "equ": 9210,
      "Ġoutside": 9211,
      "Ġlinestyle": 9212,
      "feat": 9213,
      "console": 9214,
      "kit": 9215,
      "Ġlatitude": 9216,
      "Ġingre": 9217,
      "çķ": 9218,
      ".).": 9219,
      "enable": 9220,
      "OFF": 9221,
      "]\",": 9222,
      "ÐµÐ½Ð¸Ðµ": 9223,
      "ĠStream": 9224,
      "ampler": 9225,
      "exclude": 9226,
      "Ġlongest": 9227,
      "Ġintersection": 9228,
      "ĠVALUES": 9229,
      "Ġrespons": 9230,
      "Ġspeak": 9231,
      "Ġoverlap": 9232,
      "Ġboundaries": 9233,
      "\"[{": 9234,
      "ĠSD": 9235,
      "Ġreporting": 9236,
      "Generated": 9237,
      "sym": 9238,
      "Ġlegend": 9239,
      "bank": 9240,
      "ĠRecursively": 9241,
      "mult": 9242,
      "PIN": 9243,
      "Ġalign": 9244,
      "Ġspecies": 9245,
      "unicorn": 9246,
      "ĠRet": 9247,
      "Ð¾Ð¶": 9248,
      "ĠDEBUG": 9249,
      "Card": 9250,
      "ĠResource": 9251,
      "seg": 9252,
      "tot": 9253,
      "Ġfraction": 9254,
      "prod": 9255,
      "quality": 9256,
      "æĮĩ": 9257,
      "blit": 9258,
      "ivalent": 9259,
      "abling": 9260,
      "Ġcontrib": 9261,
      "umidity": 9262,
      "ĠINTO": 9263,
      "buttons": 9264,
      "ĠGood": 9265,
      "cvtColor": 9266,
      "ĠCtrl": 9267,
      "errorhandler": 9268,
      "apps": 9269,
      "Ġrecall": 9270,
      "racted": 9271,
      "},{": 9272,
      "EmptyDataError": 9273,
      "proc": 9274,
      "Ġstdin": 9275,
      "opts": 9276,
      "Tube": 9277,
      "TIAL": 9278,
      "PATTER": 9279,
      "(\"\")": 9280,
      "cwd": 9281,
      "åľ°": 9282,
      "Address": 9283,
      "ĠFollow": 9284,
      "Ġcontinuous": 9285,
      "Ġdiagonal": 9286,
      "Ġanimal": 9287,
      "Out": 9288,
      "ĠìĤ¬ìļ©": 9289,
      "Ġsetuptools": 9290,
      "plugin": 9291,
      "uristic": 9292,
      "backend": 9293,
      "Ġ------": 9294,
      "inux": 9295,
      "Ġnombre": 9296,
      "Ġfactorial": 9297,
      "bul": 9298,
      "Ġwindows": 9299,
      "ĠQueue": 9300,
      "ÐµÐ»": 9301,
[...]
